<unk>	0
<s>	0
</s>	0
<0x00>	0
<0x01>	0
<0x02>	0
<0x03>	0
<0x04>	0
<0x05>	0
<0x06>	0
<0x07>	0
<0x08>	0
<0x09>	0
<0x0A>	0
<0x0B>	0
<0x0C>	0
<0x0D>	0
<0x0E>	0
<0x0F>	0
<0x10>	0
<0x11>	0
<0x12>	0
<0x13>	0
<0x14>	0
<0x15>	0
<0x16>	0
<0x17>	0
<0x18>	0
<0x19>	0
<0x1A>	0
<0x1B>	0
<0x1C>	0
<0x1D>	0
<0x1E>	0
<0x1F>	0
<0x20>	0
<0x21>	0
<0x22>	0
<0x23>	0
<0x24>	0
<0x25>	0
<0x26>	0
<0x27>	0
<0x28>	0
<0x29>	0
<0x2A>	0
<0x2B>	0
<0x2C>	0
<0x2D>	0
<0x2E>	0
<0x2F>	0
<0x30>	0
<0x31>	0
<0x32>	0
<0x33>	0
<0x34>	0
<0x35>	0
<0x36>	0
<0x37>	0
<0x38>	0
<0x39>	0
<0x3A>	0
<0x3B>	0
<0x3C>	0
<0x3D>	0
<0x3E>	0
<0x3F>	0
<0x40>	0
<0x41>	0
<0x42>	0
<0x43>	0
<0x44>	0
<0x45>	0
<0x46>	0
<0x47>	0
<0x48>	0
<0x49>	0
<0x4A>	0
<0x4B>	0
<0x4C>	0
<0x4D>	0
<0x4E>	0
<0x4F>	0
<0x50>	0
<0x51>	0
<0x52>	0
<0x53>	0
<0x54>	0
<0x55>	0
<0x56>	0
<0x57>	0
<0x58>	0
<0x59>	0
<0x5A>	0
<0x5B>	0
<0x5C>	0
<0x5D>	0
<0x5E>	0
<0x5F>	0
<0x60>	0
<0x61>	0
<0x62>	0
<0x63>	0
<0x64>	0
<0x65>	0
<0x66>	0
<0x67>	0
<0x68>	0
<0x69>	0
<0x6A>	0
<0x6B>	0
<0x6C>	0
<0x6D>	0
<0x6E>	0
<0x6F>	0
<0x70>	0
<0x71>	0
<0x72>	0
<0x73>	0
<0x74>	0
<0x75>	0
<0x76>	0
<0x77>	0
<0x78>	0
<0x79>	0
<0x7A>	0
<0x7B>	0
<0x7C>	0
<0x7D>	0
<0x7E>	0
<0x7F>	0
<0x80>	0
<0x81>	0
<0x82>	0
<0x83>	0
<0x84>	0
<0x85>	0
<0x86>	0
<0x87>	0
<0x88>	0
<0x89>	0
<0x8A>	0
<0x8B>	0
<0x8C>	0
<0x8D>	0
<0x8E>	0
<0x8F>	0
<0x90>	0
<0x91>	0
<0x92>	0
<0x93>	0
<0x94>	0
<0x95>	0
<0x96>	0
<0x97>	0
<0x98>	0
<0x99>	0
<0x9A>	0
<0x9B>	0
<0x9C>	0
<0x9D>	0
<0x9E>	0
<0x9F>	0
<0xA0>	0
<0xA1>	0
<0xA2>	0
<0xA3>	0
<0xA4>	0
<0xA5>	0
<0xA6>	0
<0xA7>	0
<0xA8>	0
<0xA9>	0
<0xAA>	0
<0xAB>	0
<0xAC>	0
<0xAD>	0
<0xAE>	0
<0xAF>	0
<0xB0>	0
<0xB1>	0
<0xB2>	0
<0xB3>	0
<0xB4>	0
<0xB5>	0
<0xB6>	0
<0xB7>	0
<0xB8>	0
<0xB9>	0
<0xBA>	0
<0xBB>	0
<0xBC>	0
<0xBD>	0
<0xBE>	0
<0xBF>	0
<0xC0>	0
<0xC1>	0
<0xC2>	0
<0xC3>	0
<0xC4>	0
<0xC5>	0
<0xC6>	0
<0xC7>	0
<0xC8>	0
<0xC9>	0
<0xCA>	0
<0xCB>	0
<0xCC>	0
<0xCD>	0
<0xCE>	0
<0xCF>	0
<0xD0>	0
<0xD1>	0
<0xD2>	0
<0xD3>	0
<0xD4>	0
<0xD5>	0
<0xD6>	0
<0xD7>	0
<0xD8>	0
<0xD9>	0
<0xDA>	0
<0xDB>	0
<0xDC>	0
<0xDD>	0
<0xDE>	0
<0xDF>	0
<0xE0>	0
<0xE1>	0
<0xE2>	0
<0xE3>	0
<0xE4>	0
<0xE5>	0
<0xE6>	0
<0xE7>	0
<0xE8>	0
<0xE9>	0
<0xEA>	0
<0xEB>	0
<0xEC>	0
<0xED>	0
<0xEE>	0
<0xEF>	0
<0xF0>	0
<0xF1>	0
<0xF2>	0
<0xF3>	0
<0xF4>	0
<0xF5>	0
<0xF6>	0
<0xF7>	0
<0xF8>	0
<0xF9>	0
<0xFA>	0
<0xFB>	0
<0xFC>	0
<0xFD>	0
<0xFE>	0
<0xFF>	0
:“	-0
▁”	-1
..	-2
....	-3
段誉	-4
什么	-5
......	-6
说道	-7
萧峰	-8
慕容	-9
虚竹	-10
自己	-11
一个	-12
▁他	-13
也不	-14
▁段誉	-15
▁那	-16
▁这	-17
了一	-18
不是	-19
▁我	-20
阿紫	-21
乔峰	-22
武功	-23
▁你	-24
阿朱	-25
姑娘	-26
一声	-27
慕容复	-28
不知	-29
听得	-30
夫人	-31
笑道	-32
语嫣	-33
▁萧峰	-34
王语嫣	-35
心中	-36
少林	-37
出来	-38
咱们	-39
师父	-40
段正	-41
公子	-42
如何	-43
段正淳	-44
婉清	-45
木婉清	-46
叫道	-47
如此	-48
知道	-49
便是	-50
突然	-51
▁“	-52
都是	-53
......”	-54
▁只	-55
不过	-56
到了	-57
这一	-58
之中	-59
心想	-60
大理	-61
帮主	-62
不能	-63
童姥	-64
长老	-65
弟子	-66
鸠摩	-67
鸠摩智	-68
丐帮	-69
他们	-70
声道	-71
的一声	-72
▁虚竹	-73
众人	-74
声音	-75
游坦	-76
不同	-77
怎么	-78
游坦之	-79
倘若	-80
他的	-81
大师	-82
不可	-83
内力	-84
南海	-85
见到	-86
身子	-87
人的	-88
鳄神	-89
南海鳄神	-90
契丹	-91
有什么	-92
▁乔峰	-93
只见	-94
我的	-95
兄弟	-96
之间	-97
也是	-98
脸上	-99
只是	-100
不敢	-101
不得	-102
我们	-103
原来	-104
起来	-105
这个	-106
不住	-107
星宿	-108
身上	-109
▁但	-110
春秋	-111
两人	-112
先生	-113
钟灵	-114
丁春秋	-115
之下	-116
天下	-117
心下	-118
这么	-119
你的	-120
女子	-121
当真	-122
还是	-123
说话	-124
包不同	-125
不会	-126
跟着	-127
有人	-128
可是	-129
爹爹	-130
之后	-131
功夫	-132
今日	-133
这里	-134
伸手	-135
登时	-136
’,	-137
又是	-138
的一	-139
西夏	-140
和尚	-141
性命	-142
”,	-143
老大	-144
▁阿紫	-145
少林寺	-146
当下	-147
问道	-148
这些	-149
一般	-150
自然	-151
住了	-152
延庆	-153
正是	-154
二人	-155
说着	-156
过去	-157
没有	-158
句话	-159
你们	-160
保定	-161
下来	-162
少女	-163
死了	-164
见他	-165
保定帝	-166
却是	-167
中的	-168
当即	-169
左手	-170
不由	-171
英雄	-172
段誉道	-173
出去	-174
▁她	-175
双手	-176
虽然	-177
在地	-178
两个	-179
▁慕容复	-180
不到	-181
人家	-182
杀了	-183
大哥	-184
是我	-185
是谁	-186
你这	-187
阿碧	-188
▁阿朱	-189
难道	-190
乌老大	-191
喝道	-192
一笑	-193
出手	-194
在下	-195
段延庆	-196
之极	-197
厉害	-198
这位	-199
马夫人	-200
▁王语嫣	-201
▁玄	-202
一人	-203
听到	-204
甚是	-205
过来	-206
说不	-207
过了	-208
哈哈	-209
▁木婉清	-210
你说	-211
了几	-212
右手	-213
这时	-214
有一	-215
的道	-216
下去	-217
在一	-218
武林	-219
不由得	-220
是个	-221
本来	-222
是一	-223
上一	-224
上了	-225
之人	-226
只怕	-227
点头	-228
眼见	-229
便即	-230
十分	-231
之时	-232
十余	-233
似乎	-234
方丈	-235
上的	-236
第一	-237
心道	-238
这般	-239
是不	-240
姊姊	-241
手中	-242
身来	-243
的大	-244
摇头	-245
为什么	-246
居然	-247
段公子	-248
▁’	-249
对方	-250
▁段正淳	-251
微微	-252
胸口	-253
想到	-254
小僧	-255
那是	-256
三人	-257
明白	-258
轻轻	-259
一惊	-260
师兄	-261
了出来	-262
王夫人	-263
将他	-264
口气	-265
无法	-266
此刻	-267
向他	-268
的是	-269
江湖	-270
这才	-271
那人	-272
一时	-273
中原	-274
我不	-275
来到	-276
中鹤	-277
全身	-278
汉子	-279
慕容公子	-280
许多	-281
儿子	-282
大的	-283
大叫	-284
立时	-285
一阵	-286
之事	-287
了这	-288
只觉	-289
云中鹤	-290
万仇	-291
之意	-292
就是	-293
给你	-294
在他	-295
给我	-296
▁鸠摩智	-297
:‘	-298
到底	-299
洪基	-300
忽听得	-301
二娘	-302
片刻	-303
生死	-304
钟万仇	-305
大声	-306
妈妈	-307
叶二娘	-308
天石	-309
耶律	-310
为了	-311
就算	-312
第二	-313
少林派	-314
巴天石	-315
敌人	-316
风波	-317
不见	-318
穴道	-319
这小	-320
那老	-321
出一	-322
实是	-323
▁游坦之	-324
不禁	-325
武士	-326
在地下	-327
不肯	-328
丹臣	-329
更是	-330
眼睛	-331
站起	-332
这等	-333
突然间	-334
风波恶	-335
适才	-336
仍是	-337
你是	-338
同时	-339
秋水	-340
朱丹臣	-341
▁一	-342
了他	-343
▁众人	-344
星宿派	-345
不起	-346
之外	-347
只有	-348
王姑娘	-349
虚竹道	-350
不错	-351
公主	-352
她的	-353
忽然	-354
恶人	-355
走到	-356
此人	-357
的人	-358
之上	-359
怒道	-360
▁这一	-361
兵刃	-362
旁人	-363
说到	-364
李秋水	-365
言语	-366
去了	-367
来的	-368
寻思	-369
主人	-370
便在	-371
姑苏	-372
果然	-373
之前	-374
却又	-375
表哥	-376
这几	-377
各人	-378
听他	-379
已然	-380
星河	-381
的话	-382
也没	-383
女童	-384
朋友	-385
说得	-386
我一	-387
皇帝	-388
那个	-389
高手	-390
自己的	-391
无量	-392
百川	-393
星宿老	-394
苏星河	-395
给他	-396
高僧	-397
大理国	-398
▁不	-399
上来	-400
却也	-401
年纪	-402
了起来	-403
契丹人	-404
不成	-405
始终	-406
当年	-407
的手	-408
耶律洪基	-409
三十	-410
慢慢	-411
哪里	-412
这人	-413
你不	-414
实在	-415
怎地	-416
是不是	-417
邓百川	-418
灵鹫	-419
真气	-420
跟我	-421
的声音	-422
瞧瞧	-423
神色	-424
自是	-425
赵钱	-426
赵钱孙	-427
不及	-428
否则	-429
司马	-430
啊哟	-431
这样	-432
镇南	-433
不好	-434
我是	-435
有的	-436
早已	-437
父亲	-438
难以	-439
之声	-440
半点	-441
又道	-442
之处	-443
他是	-444
冠清	-445
头来	-446
掌力	-447
便道	-448
想起	-449
全冠清	-450
微笑道	-451
慕容氏	-452
多半	-453
大家	-454
便要	-455
大汉	-456
未必	-457
说什么	-458
镇南王	-459
下的	-460
女郎	-461
玄难	-462
神医	-463
灵鹫宫	-464
武学	-465
脸色	-466
▁包不同	-467
六脉	-468
前辈	-469
神剑	-470
不动	-471
容易	-472
数十	-473
点了	-474
低声道	-475
丝毫	-476
两位	-477
在这	-478
大笑	-479
少年	-480
你一	-481
缓缓	-482
只听得	-483
只不过	-484
不少	-485
何况	-486
口中	-487
四人	-488
更加	-489
▁保定帝	-490
了我	-491
真是	-492
解药	-493
因此	-494
立即	-495
身前	-496
薛神医	-497
上前	-498
司空	-499
成了	-500
手掌	-501
这是	-502
那里	-503
六脉神剑	-504
一条	-505
一面	-506
动手	-507
手指	-508
东西	-509
件事	-510
师弟	-511
是以	-512
是你	-513
神功	-514
走了	-515
▁南海鳄神	-516
倒也	-517
公冶	-518
十二	-519
孩儿	-520
玄慈	-521
群豪	-522
长剑	-523
和他	-524
指点	-525
掌门	-526
眼前	-527
绝技	-528
罗星	-529
老者	-530
身边	-531
七八	-532
人人	-533
那么	-534
徐长老	-535
那少女	-536
了个	-537
姊夫	-538
子的	-539
抓住	-540
转身	-541
▁丁春秋	-542
▁段誉道	-543
不如	-544
决计	-545
僧人	-546
皇太	-547
红棉	-548
肩头	-549
觉得	-550
除了	-551
钟夫人	-552
大宋	-553
功力	-554
大伙	-555
的小	-556
霎时	-557
▁钟灵	-558
在这里	-559
三个	-560
不愿	-561
再也	-562
当然	-563
怀中	-564
放在	-565
竟然	-566
见她	-567
随即	-568
黑衣	-569
了口气	-570
声响	-571
并不	-572
终于	-573
见过	-574
丈夫	-575
乃是	-576
只要	-577
奇怪	-578
有何	-579
此事	-580
此时	-581
从来	-582
十八	-583
后来	-584
模样	-585
跟你	-586
鲜血	-587
的武功	-588
何必	-589
便如	-590
回来	-591
段氏	-592
脚步	-593
干什么	-594
师叔	-595
开了	-596
杀人	-597
着一	-598
▁”“	-599
世镜	-600
之际	-601
嘿嘿	-602
大喜	-603
婆婆	-604
大声道	-605
是什么	-606
不再	-607
不出	-608
年来	-609
而出	-610
黄眉	-611
了下来	-612
了得	-613
入了	-614
好了	-615
清楚	-616
逍遥	-617
须得	-618
▁两人	-619
乔帮主	-620
▁马夫人	-621
可惜	-622
回去	-623
好汉	-624
欢喜	-625
法子	-626
的事	-627
心中一	-628
白世镜	-629
一齐	-630
了你	-631
古怪	-632
只道	-633
孩子	-634
群雄	-635
秦红棉	-636
站起身来	-637
▁其	-638
一招	-639
好生	-640
得罪	-641
急忙	-642
见了	-643
一掌	-644
内功	-645
几个	-646
总是	-647
瞧着	-648
背上	-649
还有	-650
青袍	-651
▁可是	-652
生死符	-653
暗暗	-654
说了	-655
▁这时	-656
公冶乾	-657
忍不住	-658
慕容博	-659
叹了口气	-660
大事	-661
施主	-662
满脸	-663
纷纷	-664
身后	-665
大伙儿	-666
不用	-667
中年	-668
体内	-669
衣衫	-670
▁倘若	-671
阿紫道	-672
一直	-673
中了	-674
子穆	-675
定是	-676
答允	-677
▁童姥	-678
很好	-679
显然	-680
有些	-681
身旁	-682
远远	-683
那就	-684
黄眉僧	-685
一片	-686
半晌	-687
叫我	-688
喜欢	-689
女儿	-690
左子穆	-691
下了	-692
不多	-693
吩咐	-694
四个	-695
得到	-696
万万	-697
兀自	-698
大王	-699
才是	-700
无不	-701
星竹	-702
露出	-703
非也	-704
齐声	-705
司空玄	-706
但见	-707
无比	-708
老僧	-709
转过	-710
阮星竹	-711
不了	-712
以为	-713
我要	-714
’。	-715
一会	-716
一怔	-717
报仇	-718
提起	-719
渐渐	-720
真的	-721
隐隐	-722
吃一惊	-723
说不定	-724
两名	-725
反而	-726
是啊	-727
看来	-728
确是	-729
终究	-730
也不敢	-731
萧峰道	-732
微微一笑	-733
”。	-734
万里	-735
也好	-736
前来	-737
剑法	-738
我这	-739
来了	-740
男子	-741
向来	-742
多谢	-743
智光	-744
转头	-745
了过去	-746
他一	-747
你要	-748
便向	-749
谭婆	-750
不知道	-751
大恶人	-752
▁只听得	-753
▁众	-754
上去	-755
全然	-756
妹子	-757
崔百	-758
聚贤	-759
也不知	-760
一名	-761
不相	-762
不要	-763
名字	-764
吓得	-765
天龙	-766
时候	-767
谭公	-768
身形	-769
进来	-770
崔百泉	-771
哈哈大笑	-772
▁小	-773
不必	-774
全无	-775
叫做	-776
回头	-777
在她	-778
天山	-779
我便	-780
着实	-781
而已	-782
说来	-783
躬身	-784
▁咱们	-785
了一眼	-786
▁第	-787
不对	-788
只须	-789
得多	-790
段郎	-791
规矩	-792
辽国	-793
江湖上	-794
青袍客	-795
星宿老怪	-796
不料	-797
其中	-798
只得	-799
将我	-800
我可	-801
皇上	-802
七十二	-803
摇头道	-804
武林中	-805
下一	-806
怎样	-807
怎能	-808
枯荣	-809
▁只听	-810
司马林	-811
阿朱道	-812
▁‘	-813
不免	-814
哥哥	-815
头上	-816
当时	-817
忙道	-818
料想	-819
无人	-820
父母	-821
要是	-822
越来	-823
跟他	-824
一个人	-825
了一声	-826
▁段延庆	-827
大吃一惊	-828
决不	-829
刀白	-830
包三	-831
又想	-832
叫你	-833
大爷	-834
小子	-835
快快	-836
手臂	-837
是否	-838
磕头	-839
神仙	-840
吃了一	-841
越来越	-842
感激	-843
眼光	-844
神情	-845
蓦地	-846
道人	-847
当真是	-848
了两	-849
就此	-850
师伯	-851
并非	-852
时辰	-853
正在	-854
▁原来	-855
▁只见	-856
老人家	-857
世上	-858
徒儿	-859
满了	-860
而去	-861
说的	-862
那女童	-863
多少	-864
对付	-865
手下	-866
暗器	-867
理会	-868
而行	-869
这么一	-870
之色	-871
半空	-872
姓段	-873
得很	-874
杀我	-875
母亲	-876
王爷	-877
用力	-878
脑袋	-879
远山	-880
那也	-881
阁下	-882
▁玄慈	-883
在一起	-884
一样	-885
主意	-886
于是	-887
并无	-888
我去	-889
数百	-890
相救	-891
人物	-892
地方	-893
显是	-894
胡说	-895
颇有	-896
了下去	-897
点头道	-898
吃了一惊	-899
伸出	-900
得紧	-901
我也	-902
的好	-903
萧远山	-904
跟你说	-905
为难	-906
人道	-907
其实	-908
发出	-909
害怕	-910
将她	-911
每一	-912
王子	-913
现下	-914
目光	-915
相貌	-916
瞧去	-917
背后	-918
逃走	-919
门关	-920
个个	-921
伯父	-922
慕华	-923
是他	-924
本因	-925
正要	-926
了一会	-927
了出去	-928
的功夫	-929
木婉清道	-930
众位	-931
出口	-932
又有	-933
受伤	-934
听她	-935
在我	-936
在此	-937
进去	-938
骂道	-939
▁老	-940
各位	-941
小小	-942
打得	-943
着他	-944
缥缈	-945
良久	-946
那便	-947
波罗星	-948
若不是	-949
▁那少女	-950
点了点头	-951
▁唉	-952
▁过	-953
何以	-954
再说	-955
向前	-956
岳老	-957
生怕	-958
茶花	-959
错了	-960
薛慕华	-961
英雄好汉	-962
一动	-963
之道	-964
也有	-965
保昆	-966
听说	-967
女人	-968
毒手	-969
生平	-970
站在	-971
范骅	-972
那些	-973
冷笑道	-974
诸保昆	-975
▁耶律洪基	-976
一听	-977
从此	-978
所在	-979
陛下	-980
缥缈峰	-981
▁忽听得	-982
一见	-983
之情	-984
低声	-985
八道	-986
出了	-987
刚才	-988
地下	-989
将这	-990
带头	-991
相助	-992
答应	-993
重重	-994
褚万里	-995
慕容先生	-996
一股	-997
佛门	-998
可以	-999
嗤嗤	-1000
小心	-1001
是要	-1002
本帮	-1003
面前	-1004
公子爷	-1005
我师父	-1006
无量剑	-1007
胡说八道	-1008
▁大	-1009
不论	-1010
之力	-1011
却不	-1012
大有	-1013
好好	-1014
寻常	-1015
快步	-1016
招数	-1017
本寺	-1018
汉人	-1019
洞主	-1020
而来	-1021
背心	-1022
自行	-1023
若不	-1024
请你	-1025
路上	-1026
阳指	-1027
木姑娘	-1028
颤声道	-1029
又有什么	-1030
说到这里	-1031
回到	-1032
坐在	-1033
手腕	-1034
沉吟	-1035
说过	-1036
门外	-1037
▁玄难	-1038
刀白凤	-1039
雁门关	-1040
▁巴天石	-1041
▁王夫人	-1042
,“	-1043
之心	-1044
只好	-1045
地道	-1046
头顶	-1047
宫女	-1048
小人	-1049
师妹	-1050
最后	-1051
火焰	-1052
知他	-1053
脾气	-1054
若是	-1055
讯息	-1056
还没	-1057
顷刻	-1058
天龙寺	-1059
▁乌老大	-1060
这几句话	-1061
▁是	-1062
一张	-1063
二十	-1064
你别	-1065
分别	-1066
到得	-1067
千万	-1068
叫他	-1069
和我	-1070
均想	-1071
无礼	-1072
相见	-1073
也不会	-1074
也不是	-1075
大大的	-1076
▁阿朱道	-1077
一一	-1078
一位	-1079
便已	-1080
冷冷	-1081
凌波	-1082
双掌	-1083
师哥	-1084
所以	-1085
摘星	-1086
更无	-1087
然后	-1088
玄苦	-1089
石壁	-1090
贱人	-1091
起了	-1092
▁阿碧	-1093
汪帮主	-1094
立时便	-1095
▁阿紫道	-1096
中间	-1097
升泰	-1098
幸好	-1099
得了	-1100
指着	-1101
既然	-1102
明明	-1103
明知	-1104
本事	-1105
极是	-1106
林中	-1107
永远	-1108
腰间	-1109
走出	-1110
轻功	-1111
闪电	-1112
青城	-1113
▁当下	-1114
王语嫣道	-1115
▁又	-1116
一块	-1117
一步	-1118
凶险	-1119
到他	-1120
吐蕃	-1121
向西	-1122
回答	-1123
妙极	-1124
客气	-1125
应道	-1126
抱着	-1127
日后	-1128
神农	-1129
给人	-1130
衣袖	-1131
凌波微	-1132
说不出	-1133
逍遥派	-1134
高升泰	-1135
突然之间	-1136
从未	-1137
受了	-1138
叹道	-1139
听了	-1140
早就	-1141
暗中	-1142
棋局	-1143
的老	-1144
而死	-1145
说是	-1146
▁只是	-1147
▁这些	-1148
也不能	-1149
枯荣大师	-1150
神仙姊姊	-1151
不平	-1152
动弹	-1153
半分	-1154
四十	-1155
宝宝	-1156
将军	-1157
心头	-1158
舵主	-1159
该当	-1160
颇为	-1161
高强	-1162
不多时	-1163
了过来	-1164
这些人	-1165
不去	-1166
不在	-1167
不怕	-1168
伤口	-1169
便将	-1170
官兵	-1171
得他	-1172
想来	-1173
是好	-1174
江南	-1175
让他	-1176
▁钟万仇	-1177
包三先生	-1178
一眼	-1179
人之	-1180
又惊	-1181
取出	-1182
只盼	-1183
号令	-1184
呼吸	-1185
当日	-1186
我就	-1187
摇了	-1188
然而	-1189
神农帮	-1190
西夏国	-1191
大理段氏	-1192
的一声响	-1193
姑苏慕容氏	-1194
不定	-1195
先前	-1196
单正	-1197
对我	-1198
左掌	-1199
已是	-1200
放心	-1201
明王	-1202
本派	-1203
生气	-1204
群僧	-1205
重伤	-1206
你怎么	-1207
陈长老	-1208
凌波微步	-1209
不但	-1210
不绝	-1211
不许	-1212
双目	-1213
大元	-1214
大惊	-1215
对他	-1216
悄悄	-1217
意思	-1218
本门	-1219
而且	-1220
解开	-1221
▁那人	-1222
从来没	-1223
摘星子	-1224
带头大哥	-1225
▁好	-1226
一只	-1227
一点	-1228
以后	-1229
伯当	-1230
何处	-1231
你也	-1232
你去	-1233
右掌	-1234
大怒	-1235
奇道	-1236
已经	-1237
无可	-1238
驸马	-1239
...	-1240
▁不料	-1241
又惊又	-1242
向段誉	-1243
姚伯当	-1244
岂不是	-1245
我爹爹	-1246
蓦地里	-1247
这小子	-1248
▁萧峰道	-1249
一团	-1250
一看	-1251
不自	-1252
二哥	-1253
单刀	-1254
待得	-1255
故意	-1256
然道	-1257
男人	-1258
相距	-1259
老爷	-1260
言道	-1261
酒保	-1262
闪避	-1263
什么事	-1264
小和尚	-1265
这许多	-1266
▁朱丹臣	-1267
一生	-1268
下马	-1269
你又	-1270
寺中	-1271
左右	-1272
康广	-1273
心上	-1274
法门	-1275
的了	-1276
第三	-1277
老衲	-1278
虽是	-1279
这就	-1280
连连	-1281
却也不	-1282
吴长老	-1283
抓住了	-1284
霎时间	-1285
一起	-1286
不想	-1287
丫头	-1288
几步	-1289
别人	-1290
向她	-1291
呼呼	-1292
容貌	-1293
尚未	-1294
微笑	-1295
玫瑰	-1296
群丐	-1297
而下	-1298
自当	-1299
走进	-1300
这两	-1301
一口	-1302
下手	-1303
为师	-1304
也就	-1305
也已	-1306
了三	-1307
向后	-1308
喜道	-1309
天竺	-1310
夫妇	-1311
她们	-1312
姊妹	-1313
家的	-1314
帮众	-1315
放开	-1316
桌上	-1317
毫不	-1318
玉虚	-1319
种种	-1320
莫非	-1321
行事	-1322
行礼	-1323
要我	-1324
这次	-1325
钢杖	-1326
一个个	-1327
乔峰道	-1328
延庆太	-1329
段誉的	-1330
聚贤庄	-1331
见到了	-1332
一句	-1333
一来	-1334
不便	-1335
为人	-1336
也都	-1337
偏偏	-1338
奶奶	-1339
对头	-1340
是在	-1341
有个	-1342
止清	-1343
神山	-1344
还不	-1345
门人	-1346
非同	-1347
▁你们	-1348
小姑娘	-1349
康广陵	-1350
摇了摇头	-1351
霎时之间	-1352
,‘	-1353
不凡	-1354
伤心	-1355
但他	-1356
做了	-1357
别说	-1358
到处	-1359
原是	-1360
大石	-1361
定然	-1362
害死	-1363
尽数	-1364
异常	-1365
惭愧	-1366
毒药	-1367
要紧	-1368
遇到	-1369
道理	-1370
那日	-1371
金刚	-1372
▁我们	-1373
一阳指	-1374
的内力	-1375
青城派	-1376
▁云中鹤	-1377
丐帮帮主	-1378
哼了一声	-1379
西夏武士	-1380
一言	-1381
下山	-1382
不上	-1383
不足	-1384
两声	-1385
全是	-1386
其余	-1387
判官	-1388
向那	-1389
大厅	-1390
家伙	-1391
岛主	-1392
恭敬	-1393
竟是	-1394
罢了	-1395
要杀	-1396
跪下	-1397
辽兵	-1398
还施	-1399
▁难道	-1400
掌门人	-1401
这句话	-1402
两步	-1403
也无	-1404
何等	-1405
冰蚕	-1406
剧毒	-1407
华赫	-1408
另有	-1409
女真	-1410
岂能	-1411
已被	-1412
惊呼	-1413
戒律	-1414
执法	-1415
比之	-1416
玄寂	-1417
老子	-1418
誉儿	-1419
豪杰	-1420
那时	-1421
铁杖	-1422
了一个	-1423
从怀中	-1424
如何能	-1425
这一掌	-1426
▁风波恶	-1427
哈哈一笑	-1428
仍然	-1429
到来	-1430
南院	-1431
得知	-1432
想必	-1433
正好	-1434
此后	-1435
物事	-1436
的情	-1437
糟糕	-1438
纵身	-1439
老贼	-1440
聪明	-1441
诧异	-1442
走近	-1443
那位	-1444
面目	-1445
▁便在	-1446
一句话	-1447
卓不凡	-1448
却不知	-1449
皇太后	-1450
转头向	-1451
这件事	-1452
黑玫瑰	-1453
▁叶二娘	-1454
包不同道	-1455
一定	-1456
万劫	-1457
不断	-1458
了半	-1459
双足	-1460
如果	-1461
家人	-1462
小可	-1463
年轻	-1464
忘了	-1465
无崖	-1466
有理	-1467
淡淡	-1468
甚麽	-1469
自尽	-1470
要他	-1471
设法	-1472
那可	-1473
也没有	-1474
华赫艮	-1475
又不是	-1476
玉虚散	-1477
钟姑娘	-1478
以及	-1479
你快	-1480
佩服	-1481
北冥	-1482
吃了	-1483
外人	-1484
奔到	-1485
妻子	-1486
将那	-1487
我在	-1488
我说	-1489
接连	-1490
无耻	-1491
看得	-1492
纵马	-1493
身份	-1494
身穿	-1495
过一	-1496
过彦	-1497
这话	-1498
▁不过	-1499
倒在地	-1500
闪电貂	-1501
姑苏慕容	-1502
非同小可	-1503
不停	-1504
之言	-1505
了她	-1506
便有	-1507
力道	-1508
南京	-1509
双眼	-1510
和她	-1511
太过	-1512
布袋	-1513
干么	-1514
松树	-1515
此言	-1516
玉像	-1517
用意	-1518
自称	-1519
行人	-1520
骨打	-1521
▁何况	-1522
了不起	-1523
在一旁	-1524
那女子	-1525
那老僧	-1526
冷冷的道	-1527
延庆太子	-1528
慕容复道	-1529
放在心上	-1530
”、	-1531
一红	-1532
上乘	-1533
之地	-1534
内息	-1535
力气	-1536
土公	-1537
大法	-1538
将来	-1539
开口	-1540
手法	-1541
有点	-1542
本领	-1543
格格	-1544
狠狠	-1545
真正	-1546
耳中	-1547
至于	-1548
避开	-1549
在半空	-1550
无崖子	-1551
桑土公	-1552
星宿老仙	-1553
不作	-1554
不理	-1555
却已	-1556
和你	-1557
回过	-1558
房中	-1559
才好	-1560
担心	-1561
显得	-1562
此处	-1563
毒蛇	-1564
石屋	-1565
等人	-1566
经脉	-1567
要去	-1568
见那	-1569
跟随	-1570
转念	-1571
这种	-1572
铁头	-1573
▁丐帮	-1574
宋长老	-1575
少林僧	-1576
无量山	-1577
的模样	-1578
阿骨打	-1579
▁那女童	-1580
▁钟夫人	-1581
拍的一声	-1582
不久	-1583
不着	-1584
丛中	-1585
伤人	-1586
但觉	-1587
你想	-1588
你来	-1589
发觉	-1590
四位	-1591
声大	-1592
大了	-1593
天部	-1594
姥姥	-1595
少室	-1596
岂知	-1597
成为	-1598
手上	-1599
拍拍	-1600
数丈	-1601
既是	-1602
是了	-1603
深厚	-1604
的脸	-1605
眉头	-1606
看到	-1607
给她	-1608
而起	-1609
脱身	-1610
赵煦	-1611
运气	-1612
送了	-1613
伸手去	-1614
和阿朱	-1615
将下来	-1616
想不到	-1617
清楚楚	-1618
▁邓百川	-1619
清清楚楚	-1620
一场	-1621
一番	-1622
两条	-1623
举起	-1624
以致	-1625
似是	-1626
其时	-1627
内劲	-1628
几句	-1629
出于	-1630
前面	-1631
十六	-1632
反手	-1633
向我	-1634
喀喇	-1635
四下	-1636
四名	-1637
固然	-1638
性子	-1639
慈悲	-1640
拇指	-1641
接过	-1642
最好	-1643
殿下	-1644
百姓	-1645
说我	-1646
诸位	-1647
谁都	-1648
门下	-1649
险些	-1650
难过	-1651
万劫谷	-1652
哲罗星	-1653
少室山	-1654
片刻间	-1655
马大元	-1656
▁快	-1657
一根	-1658
一瞥	-1659
不信	-1660
不易	-1661
了么	-1662
你可	-1663
便去	-1664
出言	-1665
只想	-1666
喝酒	-1667
岩石	-1668
得好	-1669
得我	-1670
我来	-1671
时分	-1672
来历	-1673
父子	-1674
精神	-1675
而然	-1676
自知	-1677
舅妈	-1678
菩萨	-1679
这番	-1680
中年人	-1681
乔大爷	-1682
也不用	-1683
些什么	-1684
没想到	-1685
的人物	-1686
这么说	-1687
▁徐长老	-1688
玉虚散人	-1689
自然而然	-1690
▁慕容复道	-1691
一件	-1692
一切	-1693
你再	-1694
便不	-1695
卑鄙	-1696
变色	-1697
在你	-1698
壁上	-1699
声中	-1700
大半	-1701
子弟	-1702
对手	-1703
属下	-1704
惊道	-1705
手足	-1706
抬起	-1707
泪水	-1708
男女	-1709
相似	-1710
自幼	-1711
若有	-1712
行走	-1713
见识	-1714
说完	-1715
辽军	-1716
还能	-1717
▁智光	-1718
甘宝宝	-1719
▁全冠清	-1720
▁白世镜	-1721
游坦之道	-1722
这位姑娘	-1723
’、	-1724
一刀	-1725
中人	-1726
中土	-1727
也要	-1728
于他	-1729
亲眼	-1730
你就	-1731
光标	-1732
冷笑	-1733
凝视	-1734
几下	-1735
口道	-1736
四字	-1737
大为	-1738
奈何	-1739
室里	-1740
岂有	-1741
已将	-1742
平平	-1743
放下	-1744
无论	-1745
有时	-1746
望去	-1747
没了	-1748
的名	-1749
直到	-1750
瞧得	-1751
站着	-1752
蜈蚣	-1753
风流	-1754
”、“	-1755
▁他们	-1756
三十六	-1757
几句话	-1758
功大法	-1759
原来是	-1760
将出来	-1761
自然是	-1762
身子一	-1763
郁光标	-1764
▁虚竹道	-1765
一个女子	-1766
段正淳道	-1767
一把	-1768
不懂	-1769
之法	-1770
伤了	-1771
便能	-1772
修习	-1773
呼叫	-1774
大名	-1775
好笑	-1776
往往	-1777
杀你	-1778
楚王	-1779
步法	-1780
犹如	-1781
真相	-1782
眼中	-1783
身受	-1784
飘飘	-1785
▁群雄	-1786
恭恭敬	-1787
的所在	-1788
的言语	-1789
那女郎	-1790
▁左子穆	-1791
不平道人	-1792
不知如何	-1793
动弹不得	-1794
化功大法	-1795
恭恭敬敬	-1796
▁王语嫣道	-1797
▁在	-1798
三弟	-1799
上下	-1800
他在	-1801
低头	-1802
佛法	-1803
凝神	-1804
只听	-1805
只因	-1806
叫作	-1807
好手	-1808
延宗	-1809
开眼	-1810
心惊	-1811
推开	-1812
救人	-1813
施展	-1814
无数	-1815
易筋	-1816
梅剑	-1817
眼珠	-1818
矮子	-1819
胡涂	-1820
话来	-1821
都已	-1822
▁今日	-1823
▁过了	-1824
丐帮的	-1825
了几下	-1826
在自己	-1827
大丈夫	-1828
对不起	-1829
李延宗	-1830
▁那女郎	-1831
天山童姥	-1832
少林寺的	-1833
还有什么	-1834
▁包不同道	-1835
一挥	-1836
不像	-1837
倒是	-1838
出声	-1839
北方	-1840
另外	-1841
大大	-1842
大燕	-1843
太太	-1844
待我	-1845
得意	-1846
心里	-1847
情势	-1848
挣扎	-1849
有如	-1850
朱蛤	-1851
段家	-1852
焦急	-1853
相对	-1854
破解	-1855
竟会	-1856
胖子	-1857
胡子	-1858
见这	-1859
认得	-1860
语气	-1861
青石	-1862
▁其时	-1863
不出来	-1864
二十余	-1865
这一次	-1866
▁乔峰道	-1867
契丹武士	-1868
无论如何	-1869
▁正	-1870
一下	-1871
一跃	-1872
不来	-1873
不识	-1874
中有	-1875
乘机	-1876
书呆	-1877
事情	-1878
于我	-1879
以彼	-1880
便宜	-1881
光杰	-1882
再加	-1883
初时	-1884
加害	-1885
去找	-1886
外面	-1887
大侠	-1888
尽皆	-1889
已有	-1890
抬头	-1891
断了	-1892
服侍	-1893
未免	-1894
欺侮	-1895
疑心	-1896
着地	-1897
笑容	-1898
纵然	-1899
胸膛	-1900
舌头	-1901
说起	-1902
走去	-1903
身材	-1904
部属	-1905
青年	-1906
高兴	-1907
▁各人	-1908
一口气	-1909
你自己	-1910
取出一	-1911
易筋经	-1912
过彦之	-1913
以彼之道	-1914
南院大王	-1915
砰的一声	-1916
雁门关外	-1917
万分	-1918
下面	-1919
不说	-1920
之辈	-1921
二来	-1922
便了	-1923
便可	-1924
全力	-1925
八个	-1926
叫声	-1927
右臂	-1928
四周	-1929
图形	-1930
大门	-1931
奔出	-1932
好处	-1933
将你	-1934
尽是	-1935
干净	-1936
御营	-1937
想要	-1938
拉着	-1939
拍手	-1940
旁观	-1941
无声	-1942
无穷	-1943
日子	-1944
暗算	-1945
有余	-1946
率领	-1947
生的	-1948
的尸	-1949
皇宫	-1950
等一	-1951
美貌	-1952
老兄	-1953
而至	-1954
记得	-1955
走上	-1956
走吧	-1957
赶来	-1958
还礼	-1959
陡然	-1960
高明	-1961
’、‘	-1962
▁’”	-1963
▁这人	-1964
不能再	-1965
倒也不	-1966
声说道	-1967
段夫人	-1968
段正明	-1969
皇太叔	-1970
不会武功	-1971
天下第一	-1972
太皇太后	-1973
转过身来	-1974
▁要	-1975
一日	-1976
一百	-1977
中所	-1978
之一	-1979
了开	-1980
住他	-1981
便想	-1982
光豪	-1983
免得	-1984
几乎	-1985
又问	-1986
发作	-1987
叛军	-1988
可就	-1989
在山	-1990
头发	-1991
姓名	-1992
定要	-1993
对你	-1994
小姐	-1995
岂不	-1996
左首	-1997
年前	-1998
并肩	-1999
弥陀	-2000
形貌	-2001
彼身	-2002
待会	-2003
念头	-2004
怎会	-2005
总算	-2006
时刻	-2007
有谁	-2008
深深	-2009
美人	-2010
衣服	-2011
貂儿	-2012
身手	-2013
还在	-2014
这三	-2015
问你	-2016
马蹄	-2017
▁如此	-2018
▁小僧	-2019
出来的	-2020
弥陀佛	-2021
朗声道	-2022
▁萧远山	-2023
▁那大汉	-2024
▁黄眉僧	-2025
四大恶人	-2026
玄苦大师	-2027
鸠摩智道	-2028
▁便在此时	-2029
不休	-2030
不等	-2031
不答	-2032
书生	-2033
五六	-2034
亲自	-2035
人来	-2036
人都	-2037
任何	-2038
传来	-2039
千里	-2040
又向	-2041
变化	-2042
喃喃	-2043
对准	-2044
帮中	-2045
心神	-2046
恩师	-2047
无力	-2048
无所	-2049
无相	-2050
死于	-2051
王鼎	-2052
的向	-2053
的神	-2054
着了	-2055
离开	-2056
脚下	-2057
被他	-2058
达摩	-2059
过得	-2060
长叹	-2061
▁第二	-2062
了一步	-2063
哪一个	-2064
在大理	-2065
害死了	-2066
师伯祖	-2067
师兄弟	-2068
干光豪	-2069
这一招	-2070
龚光杰	-2071
▁那宫女	-2072
大声叫道	-2073
抬起头来	-2074
还施彼身	-2075
黑衣女郎	-2076
一路	-2077
一闪	-2078
一颗	-2079
为我	-2080
之余	-2081
之士	-2082
乱跳	-2083
交给	-2084
他说	-2085
修为	-2086
劲力	-2087
同门	-2088
嘴巴	-2089
大碗	-2090
尽管	-2091
已极	-2092
心思	-2093
必定	-2094
找到	-2095
曼陀	-2096
气息	-2097
玄悲	-2098
祖宗	-2099
红袍	-2100
练功	-2101
而上	-2102
而不	-2103
脖子	-2104
膻中	-2105
言之	-2106
让我	-2107
赶到	-2108
软鞭	-2109
远处	-2110
那边	-2111
重大	-2112
闻到	-2113
额头	-2114
不自禁	-2115
只见他	-2116
和段誉	-2117
岳老三	-2118
的女子	-2119
见段誉	-2120
▁司空玄	-2121
阿弥陀佛	-2122
▁木婉清道	-2123
一品	-2124
不大	-2125
了去	-2126
从前	-2127
你便	-2128
出神	-2129
势必	-2130
匆匆	-2131
合什	-2132
君子	-2133
听见	-2134
太也	-2135
好人	-2136
婴儿	-2137
带着	-2138
当世	-2139
怒气	-2140
怦怦	-2141
或是	-2142
掌法	-2143
杀的	-2144
来得	-2145
治伤	-2146
疼痛	-2147
的那	-2148
相互	-2149
肌肤	-2150
肚子	-2151
自身	-2152
般的	-2153
语音	-2154
谷中	-2155
贵帮	-2156
通红	-2157
门口	-2158
随手	-2159
▁在下	-2160
▁眼见	-2161
一般的	-2162
也未必	-2163
再也不	-2164
多半是	-2165
得多了	-2166
的弟子	-2167
童姥道	-2168
▁但听得	-2169
▁公冶乾	-2170
▁苏星河	-2171
回过头来	-2172
少林寺中	-2173
一出	-2174
一指	-2175
令人	-2176
使得	-2177
便往	-2178
便知	-2179
光闪	-2180
八九	-2181
凌空	-2182
变成	-2183
后心	-2184
吐露	-2185
国师	-2186
圣使	-2187
对她	-2188
尊主	-2189
微一	-2190
我家	-2191
打狗	-2192
指力	-2193
数日	-2194
暂且	-2195
派的	-2196
神智	-2197
算盘	-2198
美妇	-2199
老婆	-2200
跃起	-2201
轻响	-2202
这门	-2203
那一	-2204
铁面	-2205
长矛	-2206
▁本因	-2207
但听得	-2208
副帮主	-2209
另一个	-2210
契丹兵	-2211
将过来	-2212
就是了	-2213
庄聚贤	-2214
没什么	-2215
虚竹的	-2216
见到他	-2217
身上的	-2218
这两个	-2219
那少年	-2220
▁崔百泉	-2221
▁薛神医	-2222
那少女道	-2223
’?	-2224
三字	-2225
之至	-2226
五人	-2227
令他	-2228
伸指	-2229
你瞧	-2230
使出	-2231
再来	-2232
出现	-2233
厅上	-2234
去吧	-2235
双臂	-2236
呆了	-2237
大辽	-2238
寒毒	-2239
小弟	-2240
心念	-2241
我又	-2242
打架	-2243
抵挡	-2244
拱手	-2245
最多	-2246
棋盘	-2247
死不	-2248
每日	-2249
气的	-2250
派人	-2251
牢牢	-2252
狼狈	-2253
百余	-2254
禀报	-2255
细细	-2256
罪过	-2257
老是	-2258
而前	-2259
而过	-2260
能够	-2261
若要	-2262
菊剑	-2263
要你	-2264
请问	-2265
还手	-2266
这可	-2267
铁罩	-2268
银子	-2269
随便	-2270
难当	-2271
颈中	-2272
高人	-2273
▁谭公	-2274
岳老二	-2275
打死了	-2276
模一样	-2277
那声音	-2278
▁薛慕华	-2279
▁赵钱孙	-2280
又惊又喜	-2281
武功高强	-2282
瞧了一眼	-2283
西夏公主	-2284
说不出的	-2285
南海鳄神道	-2286
上写	-2287
不语	-2288
两只	-2289
为你	-2290
之所	-2291
乌龟	-2292
书信	-2293
但想	-2294
作了	-2295
凌厉	-2296
出门	-2297
勉强	-2298
卷轴	-2299
双方	-2300
双膝	-2301
向着	-2302
商议	-2303
坐骑	-2304
天地	-2305
尴尬	-2306
山峰	-2307
左足	-2308
并未	-2309
得住	-2310
我瞧	-2311
打他	-2312
掌心	-2313
敌手	-2314
数里	-2315
料到	-2316
斜眼	-2317
来啦	-2318
洞中	-2319
灵州	-2320
王八	-2321
珍珑	-2322
甚好	-2323
看了	-2324
神态	-2325
离去	-2326
秦家	-2327
练成	-2328
续道	-2329
转眼	-2330
迅捷	-2331
迅速	-2332
还道	-2333
迷糊	-2334
退开	-2335
食指	-2336
▁那老	-2337
一会儿	-2338
一品堂	-2339
决不会	-2340
将过去	-2341
岁年纪	-2342
得罪了	-2343
数十年	-2344
柔声道	-2345
瑞婆婆	-2346
白长老	-2347
这时候	-2348
那也不	-2349
三十六洞	-2350
玄慈方丈	-2351
那是什么	-2352
青袍客道	-2353
▁嗯	-2354
一些	-2355
一双	-2356
一呆	-2357
一死	-2358
一身	-2359
一震	-2360
三位	-2361
且慢	-2362
临死	-2363
也必	-2364
人影	-2365
从他	-2366
关心	-2367
兴复	-2368
出家	-2369
十年	-2370
南朝	-2371
向北	-2372
听来	-2373
大夫	-2374
感到	-2375
斜身	-2376
无形	-2377
有几	-2378
杏子	-2379
正中	-2380
比我	-2381
猛地	-2382
王府	-2383
相公	-2384
砰砰	-2385
破了	-2386
等等	-2387
耳光	-2388
胆敢	-2389
要想	-2390
越是	-2391
途中	-2392
镜湖	-2393
:“‘	-2394
▁范骅	-2395
▁跟着	-2396
▁这位	-2397
不得了	-2398
丝毫不	-2399
了一阵	-2400
大师兄	-2401
姓段的	-2402
对自己	-2403
师父的	-2404
有一个	-2405
的神色	-2406
知道了	-2407
老先生	-2408
那也是	-2409
▁那老僧	-2410
你为什么	-2411
嗤的一声	-2412
心中一凛	-2413
丈许	-2414
不小	-2415
不该	-2416
之内	-2417
之理	-2418
乔某	-2419
乘马	-2420
于你	-2421
传授	-2422
你了	-2423
你在	-2424
你没	-2425
兰剑	-2426
刀法	-2427
另一	-2428
可笑	-2429
后面	-2430
向东	-2431
向外	-2432
大仇	-2433
妈的	-2434
定了	-2435
察觉	-2436
展开	-2437
山坡	-2438
心情	-2439
怀里	-2440
急道	-2441
打死	-2442
拚命	-2443
方位	-2444
望着	-2445
机关	-2446
杀他	-2447
烦恼	-2448
犯了	-2449
玄痛	-2450
留下	-2451
相会	-2452
眼色	-2453
着的	-2454
经过	-2455
般若	-2456
表妹	-2457
识得	-2458
进了	-2459
▁一个	-2460
▁嘿嘿	-2461
▁群豪	-2462
到底是	-2463
我自然	-2464
秦家寨	-2465
跟我说	-2466
▁司马林	-2467
中原武林	-2468
乌老大道	-2469
段誉笑道	-2470
片刻之间	-2471
王语嫣的	-2472
这小姑娘	-2473
那便如何	-2474
马夫人道	-2475
恭恭敬敬的	-2476
▁再	-2477
▁当	-2478
上山	-2479
不中	-2480
不妨	-2481
不明	-2482
乡下	-2483
今天	-2484
但这	-2485
你到	-2486
你还	-2487
使的	-2488
倒了	-2489
六阳	-2490
决无	-2491
匹马	-2492
十九	-2493
千灵	-2494
半个	-2495
参与	-2496
吴长	-2497
哪知	-2498
喝了	-2499
客店	-2500
心愿	-2501
思索	-2502
惊惶	-2503
手里	-2504
打开	-2505
拍出	-2506
救命	-2507
无锡	-2508
有意	-2509
正自	-2510
毙命	-2511
甚多	-2512
眼看	-2513
石室	-2514
碰到	-2515
究竟	-2516
绝无	-2517
聋哑	-2518
藏经	-2519
要害	-2520
角上	-2521
诸般	-2522
谷主	-2523
跟她	-2524
进屋	-2525
追来	-2526
随口	-2527
难免	-2528
▁否则	-2529
▁师父	-2530
你这人	-2531
厉声道	-2532
吴长风	-2533
在段誉	-2534
大师哥	-2535
大金刚	-2536
小镜湖	-2537
我不是	-2538
王八蛋	-2539
萧峰的	-2540
起身来	-2541
那便是	-2542
顷刻间	-2543
鲍千灵	-2544
▁慕容博	-2545
▁突然间	-2546
七十二岛	-2547
的声音说道	-2548
自然而然的	-2549
一揖	-2550
一柄	-2551
不开	-2552
不打	-2553
不死	-2554
不通	-2555
之手	-2556
之旁	-2557
人多	-2558
以免	-2559
伤势	-2560
光胜	-2561
六人	-2562
决意	-2563
几位	-2564
几时	-2565
出掌	-2566
前去	-2567
剧痛	-2568
危难	-2569
去向	-2570
可说	-2571
坐下	-2572
大树	-2573
她是	-2574
山庄	-2575
已久	-2576
师姊	-2577
平时	-2578
弹琴	-2579
忌惮	-2580
快活	-2581
思归	-2582
我若	-2583
所未	-2584
报讯	-2585
摔倒	-2586
无意	-2587
有所	-2588
木屋	-2589
死在	-2590
泄漏	-2591
爹娘	-2592
皇后	-2593
眼泪	-2594
窗外	-2595
缘根	-2596
诸女	-2597
赫连	-2598
走得	-2599
辽人	-2600
道姑	-2601
铜镜	-2602
问我	-2603
领教	-2604
骇然	-2605
一颗心	-2606
不敢再	-2607
二人的	-2608
众弟子	-2609
向自己	-2610
向虚竹	-2611
和阿紫	-2612
成一团	-2613
打狗棒	-2614
杀了我	-2615
门绝技	-2616
▁星宿派	-2617
▁阮星竹	-2618
一拳	-2619
一次	-2620
三招	-2621
不下	-2622
不做	-2623
不服	-2624
不胜	-2625
不虚	-2626
中毒	-2627
主公	-2628
乔装	-2629
今晚	-2630
休息	-2631
你好	-2632
便来	-2633
修罗	-2634
假装	-2635
先行	-2636
再好	-2637
出尘	-2638
剑湖	-2639
包兄	-2640
匕首	-2641
危险	-2642
双腿	-2643
可怜	-2644
喉头	-2645
四哥	-2646
回家	-2647
多年	-2648
大是	-2649
天色	-2650
学会	-2651
学武	-2652
宁可	-2653
安慰	-2654
小指	-2655
影子	-2656
得有	-2657
心意	-2658
我和	-2659
所能	-2660
折磨	-2661
提到	-2662
文字	-2663
方能	-2664
有了	-2665
极为	-2666
毒箭	-2667
潇洒	-2668
热闹	-2669
甘心	-2670
相斗	-2671
石头	-2672
继续	-2673
胜败	-2674
胡乱	-2675
良心	-2676
落下	-2677
躲在	-2678
这老	-2679
钻入	-2680
长的	-2681
香气	-2682
黄金	-2683
众兄弟	-2684
但见他	-2685
决不能	-2686
判官笔	-2687
吐蕃国	-2688
向萧峰	-2689
听到了	-2690
吴光胜	-2691
平婆婆	-2692
我也不	-2693
苦笑道	-2694
这中间	-2695
阿紫的	-2696
黑暗中	-2697
也没什么	-2698
什么地方	-2699
北冥神功	-2700
马副帮主	-2701
▁马夫人道	-2702
▁以	-2703
一座	-2704
不尽	-2705
不行	-2706
世子	-2707
两字	-2708
之物	-2709
二僧	-2710
仰天	-2711
传功	-2712
你我	-2713
便似	-2714
冰窖	-2715
凶手	-2716
剑气	-2717
化解	-2718
十倍	-2719
又在	-2720
叫化	-2721
各处	-2722
吐番	-2723
呻吟	-2724
喝采	-2725
嘻嘻	-2726
围攻	-2727
在旁	-2728
均是	-2729
好像	-2730
屁股	-2731
屋顶	-2732
已在	-2733
打量	-2734
抱拳	-2735
接着	-2736
故事	-2737
救了	-2738
无仇	-2739
木鼎	-2740
本想	-2741
深谷	-2742
狮鼻	-2743
玄渡	-2744
皇位	-2745
看去	-2746
禀告	-2747
紧紧	-2748
翻身	-2749
聪辩	-2750
苦头	-2751
苦苦	-2752
菩提	-2753
落在	-2754
该死	-2755
请他	-2756
贤弟	-2757
身世	-2758
都有	-2759
都要	-2760
面门	-2761
面面	-2762
须当	-2763
飞出	-2764
▁其实	-2765
▁到得	-2766
▁当年	-2767
▁玄寂	-2768
▁这么	-2769
也不肯	-2770
书呆子	-2771
什么人	-2772
他们的	-2773
以内力	-2774
你爹爹	-2775
只见她	-2776
在这儿	-2777
好不好	-2778
我自己	-2779
的穴道	-2780
童姥的	-2781
红袍人	-2782
▁李秋水	-2783
▁秦红棉	-2784
少林派的	-2785
曼陀山庄	-2786
段正淳的	-2787
聪辩先生	-2788
▁突然之间	-2789
▁此	-2790
一大	-2791
上人	-2792
不清	-2793
不算	-2794
了些	-2795
五个	-2796
会有	-2797
余地	-2798
你既	-2799
僧众	-2800
前后	-2801
剑尖	-2802
医治	-2803
发抖	-2804
向左	-2805
商量	-2806
坐着	-2807
大胆	-2808
好吧	-2809
好玩	-2810
宗赞	-2811
对面	-2812
尽力	-2813
干人	-2814
得一	-2815
心事	-2816
快走	-2817
恶斗	-2818
我了	-2819
我想	-2820
打了	-2821
抓起	-2822
插入	-2823
擒拿	-2824
时的	-2825
是非	-2826
最是	-2827
榜文	-2828
毒虫	-2829
瓷瓶	-2830
皱眉	-2831
盼望	-2832
真有	-2833
破绽	-2834
秘密	-2835
立刻	-2836
老四	-2837
耳边	-2838
若无	-2839
莽牯	-2840
西首	-2841
观看	-2842
试试	-2843
诡计	-2844
说他	-2845
这条	-2846
追赶	-2847
逝世	-2848
钢抓	-2849
问他	-2850
面幕	-2851
飞身	-2852
骑兵	-2853
▁他在	-2854
▁此刻	-2855
什么都	-2856
住了他	-2857
傅思归	-2858
出尘子	-2859
又何必	-2860
变成了	-2861
四下里	-2862
将段誉	-2863
沉吟道	-2864
没半点	-2865
火焰刀	-2866
萧大侠	-2867
萧大王	-2868
西夏人	-2869
▁只不过	-2870
▁段誉见	-2871
大理国的	-2872
朗声说道	-2873
▁却	-2874
一举	-2875
一心	-2876
不忍	-2877
不觉	-2878
两下	-2879
主的	-2880
乖乖	-2881
二女	-2882
五十	-2883
五指	-2884
便觉	-2885
倒退	-2886
冤枉	-2887
剑谱	-2888
十四	-2889
又将	-2890
取过	-2891
可怖	-2892
右足	-2893
各有	-2894
后脑	-2895
咽喉	-2896
四大	-2897
大轮	-2898
好极	-2899
威名	-2900
婢子	-2901
尚有	-2902
左肩	-2903
干系	-2904
强敌	-2905
愤怒	-2906
慧净	-2907
我才	-2908
所知	-2909
打个	-2910
扶起	-2911
抢上	-2912
招呼	-2913
敝寺	-2914
无名	-2915
明日	-2916
暗自	-2917
未曾	-2918
树上	-2919
欢呼	-2920
武艺	-2921
气绝	-2922
深入	-2923
甥儿	-2924
百龄	-2925
算是	-2926
而后	-2927
莫怪	-2928
被人	-2929
见面	-2930
话声	-2931
越快	-2932
身在	-2933
那小	-2934
醒转	-2935
除去	-2936
顺着	-2937
鼻子	-2938
▁你是	-2939
▁哈哈	-2940
▁我是	-2941
▁赵煦	-2942
一个小	-2943
丐帮中	-2944
了一大	-2945
了你的	-2946
你不用	-2947
你师父	-2948
全舵主	-2949
哪知道	-2950
声叫道	-2951
插口道	-2952
的瞧着	-2953
老贼婆	-2954
袋弟子	-2955
那人道	-2956
钟灵道	-2957
▁刀白凤	-2958
▁摘星子	-2959
一模一样	-2960
也没有了	-2961
莽牯朱蛤	-2962
过不多时	-2963
顷刻之间	-2964
▁包三先生	-2965
▁段誉心想	-2966
一株	-2967
万岁	-2968
上几	-2969
下次	-2970
不利	-2971
不堪	-2972
不管	-2973
不顾	-2974
世间	-2975
之势	-2976
之气	-2977
亲生	-2978
便欲	-2979
其后	-2980
再去	-2981
冰块	-2982
分舵	-2983
却无	-2984
去看	-2985
又要	-2986
名叫	-2987
咳嗽	-2988
圈子	-2989
均知	-2990
处处	-2991
多说	-2992
大变	-2993
大呼	-2994
夫妻	-2995
女娃	-2996
字辈	-2997
察看	-2998
尸体	-2999
居士	-3000
希奇	-3001
张口	-3002
得出	-3003
心肠	-3004
恼怒	-3005
惨呼	-3006
成的	-3007
我看	-3008
或许	-3009
才道	-3010
打你	-3011
抗拒	-3012
指环	-3013
放手	-3014
无怨	-3015
是说	-3016
杀死	-3017
松球	-3018
树枝	-3019
死人	-3020
灰衣	-3021
留神	-3022
称呼	-3023
经历	-3024
结义	-3025
耳朵	-3026
脱险	-3027
腹中	-3028
良机	-3029
色的	-3030
越好	-3031
运劲	-3032
道上	-3033
长大	-3034
门派	-3035
雪地	-3036
骑马	-3037
骗人	-3038
▁就算	-3039
▁忽然	-3040
▁这样	-3041
▁那日	-3042
伸出手	-3043
大拇指	-3044
女真人	-3045
将下去	-3046
将出去	-3047
左手一	-3048
开眼来	-3049
无相功	-3050
星宿海	-3051
武功的	-3052
的法门	-3053
群弟子	-3054
谁也不	-3055
轻轻一	-3056
遇上了	-3057
那不是	-3058
那大汉	-3059
▁一行人	-3060
▁那女子	-3061
▁阿骨打	-3062
和王语嫣	-3063
怦怦乱跳	-3064
谁也不敢	-3065
身受重伤	-3066
不听	-3067
不妥	-3068
不安	-3069
不敌	-3070
之计	-3071
了来	-3072
众僧	-3073
会儿	-3074
但若	-3075
住她	-3076
你怎	-3077
便会	-3078
八部	-3079
六七	-3080
再看	-3081
几声	-3082
击出	-3083
劲风	-3084
双清	-3085
双脚	-3086
叫嚷	-3087
各自	-3088
合十	-3089
向下	-3090
向南	-3091
善哉	-3092
声名	-3093
头颈	-3094
奔去	-3095
好意	-3096
好歹	-3097
好的	-3098
威力	-3099
小船	-3100
少商	-3101
山谷	-3102
左臂	-3103
巧妙	-3104
已知	-3105
师娘	-3106
待要	-3107
得上	-3108
怔怔	-3109
急奔	-3110
急速	-3111
总而	-3112
手脚	-3113
拾起	-3114
放了	-3115
救我	-3116
无异	-3117
无恙	-3118
有多	-3119
有此	-3120
服了	-3121
梦中	-3122
次日	-3123
毕竟	-3124
滋味	-3125
玉壁	-3126
畜生	-3127
痛得	-3128
痛快	-3129
的面	-3130
秘笈	-3131
空中	-3132
端端	-3133
经书	-3134
而坐	-3135
背影	-3136
诸人	-3137
谈论	-3138
较量	-3139
里面	-3140
铁树	-3141
随时	-3142
隐瞒	-3143
难得	-3144
韦陀	-3145
顺手	-3146
颊上	-3147
▁三人	-3148
一个大	-3149
不明白	-3150
不虚传	-3151
严妈妈	-3152
了一口	-3153
了一条	-3154
了一顿	-3155
到这里	-3156
十余里	-3157
厉害的	-3158
只可惜	-3159
天下无	-3160
我怎么	-3161
抓住他	-3162
的一掌	-3163
的名字	-3164
的性命	-3165
第一个	-3166
般若掌	-3167
范百龄	-3168
迷糊糊	-3169
▁...	-3170
▁为什么	-3171
▁少林寺	-3172
丐帮弟子	-3173
总而言之	-3174
方丈师兄	-3175
晕了过去	-3176
赫连铁树	-3177
转过头来	-3178
迷迷糊糊	-3179
▁段誉叫道	-3180
七十二绝技	-3181
==	-3182
▁待	-3183
▁本	-3184
▁游	-3185
一凛	-3186
一分	-3187
一幌	-3188
上马	-3189
不耐	-3190
丑陋	-3191
两处	-3192
个字	-3193
中指	-3194
之类	-3195
也罢	-3196
事先	-3197
交情	-3198
今后	-3199
佛经	-3200
便请	-3201
俯身	-3202
停步	-3203
偷袭	-3204
共有	-3205
再无	-3206
几次	-3207
别的	-3208
刷刷	-3209
动静	-3210
千百	-3211
卫士	-3212
又已	-3213
反正	-3214
变故	-3215
号称	-3216
向你	-3217
听着	-3218
呆呆	-3219
呼喝	-3220
咚咚	-3221
哪有	-3222
四面	-3223
图画	-3224
图谱	-3225
均觉	-3226
城外	-3227
堂中	-3228
声势	-3229
大奇	-3230
大德	-3231
头大	-3232
好事	-3233
好啊	-3234
家里	-3235
尊姓	-3236
小妹	-3237
岁的	-3238
左腿	-3239
巨蟒	-3240
年的	-3241
很是	-3242
忍耐	-3243
忠心	-3244
忽道	-3245
恍然	-3246
惊慌	-3247
我已	-3248
手段	-3249
打扮	-3250
拈花	-3251
放屁	-3252
斗篷	-3253
暗叫	-3254
有趣	-3255
机密	-3256
段兄	-3257
殿上	-3258
温柔	-3259
现身	-3260
的为	-3261
的遗	-3262
相觑	-3263
短箭	-3264
神木	-3265
笃诚	-3266
第四	-3267
约莫	-3268
纵横	-3269
置之	-3270
胸前	-3271
自语	-3272
落地	-3273
蓬莱	-3274
话说	-3275
谁也	-3276
贵妃	-3277
身法	-3278
过的	-3279
还要	-3280
连声	-3281
遇上	-3282
酒水	-3283
酸软	-3284
门户	-3285
颜色	-3286
▁什么	-3287
▁但他	-3288
▁但见	-3289
▁本来	-3290
▁这是	-3291
一人道	-3292
上前去	-3293
不是我	-3294
不相同	-3295
了我的	-3296
人人都	-3297
六阳掌	-3298
剑湖宫	-3299
十八掌	-3300
取解药	-3301
大英雄	-3302
将起来	-3303
庄帮主	-3304
无法可	-3305
运内力	-3306
这一下	-3307
钟谷主	-3308
▁姚伯当	-3309
▁诸保昆	-3310
▁这一日	-3311
名不虚传	-3312
大叫一声	-3313
望了一眼	-3314
着实不少	-3315
脚步声响	-3316
那女童道	-3317
面面相觑	-3318
一剑	-3319
一对	-3320
一晃	-3321
一沉	-3322
下棋	-3323
不加	-3324
为他	-3325
之为	-3326
之仇	-3327
亲手	-3328
伤害	-3329
你若	-3330
侧头	-3331
便走	-3332
全没	-3333
凝思	-3334
到这	-3335
却没	-3336
又说	-3337
发射	-3338
受人	-3339
叫苦	-3340
和那	-3341
四姝	-3342
四肢	-3343
大义	-3344
大骂	-3345
头去	-3346
女的	-3347
姿式	-3348
定会	-3349
射去	-3350
尸首	-3351
必有	-3352
忽见	-3353
情急	-3354
情景	-3355
我再	-3356
所说	-3357
所谓	-3358
手势	-3359
投降	-3360
拜见	-3361
指挥	-3362
支持	-3363
敝帮	-3364
早知	-3365
昔日	-3366
晚上	-3367
更增	-3368
模糊	-3369
死去	-3370
比武	-3371
海中	-3372
淋漓	-3373
清凉	-3374
清脆	-3375
火石	-3376
猛虎	-3377
玄生	-3378
王妃	-3379
用心	-3380
相交	-3381
瞧你	-3382
碾坊	-3383
移动	-3384
突觉	-3385
素来	-3386
纠缠	-3387
结交	-3388
美丽	-3389
美女	-3390
聚会	-3391
肌肉	-3392
脱手	-3393
脸有	-3394
自从	-3395
苏州	-3396
若非	-3397
茫然	-3398
西北	-3399
见你	-3400
解毒	-3401
让你	-3402
询问	-3403
请教	-3404
辈子	-3405
输了	-3406
邪术	-3407
铮铮	-3408
难保	-3409
▁幸好	-3410
▁怎么	-3411
▁群丐	-3412
不由自	-3413
之极的	-3414
也不必	-3415
也不过	-3416
了进去	-3417
人丛中	-3418
你还是	-3419
十余丈	-3420
古笃诚	-3421
可不是	-3422
右手一	-3423
奚长老	-3424
武功虽	-3425
皱眉道	-3426
这一生	-3427
一惊之下	-3428
也就是了	-3429
什么东西	-3430
保定帝道	-3431
决计不会	-3432
向慕容复	-3433
小无相功	-3434
此言一出	-3435
满脸通红	-3436
玄难大师	-3437
睁开眼来	-3438
神木王鼎	-3439
▁过不多时	-3440
一家	-3441
一派	-3442
三声	-3443
下属	-3444
不似	-3445
不发	-3446
不妙	-3447
不然	-3448
不致	-3449
个人	-3450
丹田	-3451
之名	-3452
以来	-3453
使劲	-3454
傍晚	-3455
冒充	-3456
南方	-3457
又去	-3458
口音	-3459
叫人	-3460
向上	-3461
告知	-3462
咱俩	-3463
哎唷	-3464
哭道	-3465
在后	-3466
城中	-3467
大功	-3468
她说	-3469
好心	-3470
妇人	-3471
威风	-3472
家中	-3473
射出	-3474
尺许	-3475
屋中	-3476
师门	-3477
床上	-3478
底下	-3479
当众	-3480
待他	-3481
得过	-3482
忒也	-3483
怎生	-3484
恕罪	-3485
恩德	-3486
情深	-3487
情知	-3488
想是	-3489
意料	-3490
我没	-3491
把握	-3492
抢着	-3493
报答	-3494
抱起	-3495
拔出	-3496
挥出	-3497
摩诃	-3498
教训	-3499
族人	-3500
无益	-3501
无能	-3502
既已	-3503
是何	-3504
月亮	-3505
有过	-3506
未能	-3507
杀害	-3508
极快	-3509
毒性	-3510
毒辣	-3511
毒针	-3512
污泥	-3513
沉重	-3514
浑厚	-3515
热气	-3516
牙齿	-3517
现出	-3518
的打	-3519
的铁	-3520
相顾	-3521
瞎了	-3522
知觉	-3523
碗酒	-3524
竭力	-3525
等都	-3526
绿火	-3527
老夫	-3528
胜过	-3529
自也	-3530
自来	-3531
落入	-3532
行了	-3533
衣襟	-3534
要到	-3535
要来	-3536
贼秃	-3537
跪倒	-3538
踏步	-3539
身畔	-3540
近处	-3541
还请	-3542
都道	-3543
酸麻	-3544
金银	-3545
钢锥	-3546
钦佩	-3547
陪着	-3548
飞舞	-3549
马上	-3550
高高	-3551
鬼头	-3552
▁一名	-3553
▁此人	-3554
了一跳	-3555
你过来	-3556
到哪里	-3557
可不能	-3558
咱二人	-3559
大师父	-3560
奶奶的	-3561
小师父	-3562
小王子	-3563
干净净	-3564
心中却	-3565
所说的	-3566
狮鼻人	-3567
瞧不见	-3568
铁头人	-3569
阿朱的	-3570
一时之间	-3571
他老人家	-3572
叫了起来	-3573
吓了一跳	-3574
大轮明王	-3575
干干净净	-3576
慕容复的	-3577
我不知道	-3578
无可奈何	-3579
杏子林中	-3580
武林中的	-3581
镇南王府	-3582
▁鸠摩智道	-3583
▁哼	-3584
▁来	-3585
一事	-3586
一年	-3587
一道	-3588
一顿	-3589
三分	-3590
三尺	-3591
与他	-3592
中一	-3593
临头	-3594
之命	-3595
之故	-3596
之术	-3597
也得	-3598
也真	-3599
于心	-3600
人心	-3601
仁义	-3602
从小	-3603
他要	-3604
任由	-3605
伏在	-3606
伤他	-3607
使用	-3608
依言	-3609
保护	-3610
偷偷	-3611
兄长	-3612
八人	-3613
关头	-3614
出力	-3615
剑招	-3616
十多	-3617
十来	-3618
危急	-3619
参见	-3620
发颤	-3621
可不	-3622
可别	-3623
可知	-3624
吆喝	-3625
嘴里	-3626
回归	-3627
在人	-3628
好说	-3629
委实	-3630
嫣然	-3631
富贵	-3632
带了	-3633
平安	-3634
引见	-3635
总之	-3636
恭谨	-3637
懂得	-3638
我为	-3639
所杀	-3640
手执	-3641
手持	-3642
拉开	-3643
挥掌	-3644
掌风	-3645
推出	-3646
摇手	-3647
擒住	-3648
方便	-3649
无用	-3650
本已	-3651
气恼	-3652
江昂	-3653
沉沉	-3654
活了	-3655
清风	-3656
溜溜	-3657
激荡	-3658
点儿	-3659
燕子	-3660
牛肉	-3661
犹豫	-3662
甚为	-3663
甚高	-3664
留情	-3665
略一	-3666
的说	-3667
盘膝	-3668
盟主	-3669
相聚	-3670
瞧他	-3671
站立	-3672
笑声	-3673
紧急	-3674
红了	-3675
而是	-3676
联手	-3677
肚中	-3678
药物	-3679
要将	-3680
误会	-3681
起疑	-3682
轻易	-3683
辈份	-3684
这场	-3685
迟疑	-3686
逼得	-3687
闪身	-3688
降龙	-3689
非但	-3690
麻袋	-3691
黯然	-3692
▁谭婆	-3693
▁适才	-3694
一声响	-3695
不相干	-3696
了一下	-3697
了上来	-3698
了几步	-3699
他妈的	-3700
他自己	-3701
到后来	-3702
叫什么	-3703
听见了	-3704
和虚竹	-3705
声大哭	-3706
好端端	-3707
如此说	-3708
将上来	-3709
我表哥	-3710
是不错	-3711
果然是	-3712
段王爷	-3713
猛听得	-3714
的师父	-3715
那老者	-3716
为什么要	-3717
你干什么	-3718
你说什么	-3719
天下英雄	-3720
放声大哭	-3721
深深一揖	-3722
玄悲大师	-3723
王夫人道	-3724
神山上人	-3725
天山六阳掌	-3726
一软	-3727
丈余	-3728
三哥	-3729
上所	-3730
世界	-3731
中国	-3732
举手	-3733
之徒	-3734
之念	-3735
之见	-3736
也只	-3737
于此	-3738
井底	-3739
仁兄	-3740
仇人	-3741
他又	-3742
令尊	-3743
以便	-3744
住口	-3745
作声	-3746
你为	-3747
你倒	-3748
你将	-3749
内心	-3750
再行	-3751
军官	-3752
凶极	-3753
击去	-3754
刀柄	-3755
刺去	-3756
务须	-3757
十七	-3758
十三	-3759
厅中	-3760
叔叔	-3761
台山	-3762
名的	-3763
后颈	-3764
向右	-3765
呐喊	-3766
呛啷	-3767
呜呜	-3768
嘴角	-3769
图谋	-3770
圆寂	-3771
大发	-3772
大喝	-3773
大彪	-3774
大都	-3775
天上	-3776
失色	-3777
婢女	-3778
宝贝	-3779
害我	-3780
对着	-3781
开大	-3782
开心	-3783
当先	-3784
当当	-3785
怒目	-3786
惊讶	-3787
我跟	-3788
扑去	-3789
投入	-3790
折梅	-3791
拂麈	-3792
招架	-3793
拳头	-3794
救你	-3795
敬重	-3796
旁门	-3797
无一	-3798
晚生	-3799
月光	-3800
本是	-3801
杀得	-3802
来去	-3803
极高	-3804
此间	-3805
水榭	-3806
求你	-3807
没能	-3808
河南	-3809
渔人	-3810
火堆	-3811
点点	-3812
猜想	-3813
理睬	-3814
甘愿	-3815
生了	-3816
生出	-3817
白脸	-3818
直如	-3819
相信	-3820
瞧见	-3821
石阶	-3822
祖师	-3823
称为	-3824
稍有	-3825
答话	-3826
索性	-3827
罢手	-3828
罪孽	-3829
而同	-3830
胆子	-3831
胡闹	-3832
胸中	-3833
自刎	-3834
艰难	-3835
英俊	-3836
蒲团	-3837
蜜蜂	-3838
要做	-3839
见得	-3840
贯注	-3841
走开	-3842
踉跄	-3843
辛苦	-3844
避过	-3845
阴阳	-3846
随着	-3847
面具	-3848
骗我	-3849
黑暗	-3850
▁两名	-3851
▁只要	-3852
一面说	-3853
不住的	-3854
乡下人	-3855
了半天	-3856
仍是不	-3857
他二人	-3858
你这般	-3859
凶极恶	-3860
双手捧	-3861
司马卫	-3862
将他们	-3863
常言道	-3864
折梅手	-3865
摇摇头	-3866
易大彪	-3867
来不及	-3868
点点头	-3869
的名头	-3870
的高手	-3871
知道我	-3872
给他们	-3873
说话的	-3874
转过了	-3875
陡然间	-3876
不知去向	-3877
不自禁的	-3878
公主殿下	-3879
千万不可	-3880
心中一动	-3881
星宿弟子	-3882
智光大师	-3883
有什么好	-3884
灵鹫宫的	-3885
脸上一红	-3886
说话之间	-3887
送了性命	-3888
▁保定帝道	-3889
▁那中年人	-3890
波罗星师兄	-3891
▁三	-3892
▁余	-3893
▁请	-3894
一到	-3895
一处	-3896
一头	-3897
上京	-3898
上风	-3899
不幸	-3900
不解	-3901
不迟	-3902
且看	-3903
两旁	-3904
义气	-3905
义父	-3906
二字	-3907
二弟	-3908
互相	-3909
交集	-3910
仔细	-3911
他却	-3912
众女	-3913
传人	-3914
伸掌	-3915
你先	-3916
依稀	-3917
僧道	-3918
决非	-3919
则是	-3920
十五	-3921
去啦	-3922
又怎	-3923
可爱	-3924
右首	-3925
合力	-3926
启禀	-3927
呵呵	-3928
咬牙	-3929
喜色	-3930
嗔道	-3931
嘴唇	-3932
因为	-3933
在意	-3934
均有	-3935
墓前	-3936
多有	-3937
大感	-3938
太祖	-3939
失了	-3940
头脑	-3941
奴才	-3942
字画	-3943
安危	-3944
安排	-3945
宝石	-3946
客人	-3947
将一	-3948
将信	-3949
峰上	-3950
崖边	-3951
已无	-3952
常人	-3953
并没	-3954
庄严	-3955
得着	-3956
得见	-3957
必是	-3958
怀疑	-3959
恰好	-3960
恶毒	-3961
惊叫	-3962
我却	-3963
打紧	-3964
护卫	-3965
抵御	-3966
掷出	-3967
放我	-3968
教我	-3969
斗转	-3970
既有	-3971
星移	-3972
是她	-3973
望见	-3974
杀父	-3975
束手	-3976
树下	-3977
梦郎	-3978
死尸	-3979
每次	-3980
比拚	-3981
法刀	-3982
泰山	-3983
深重	-3984
满是	-3985
火光	-3986
火柱	-3987
灭口	-3988
照料	-3989
牟尼	-3990
甚至	-3991
相比	-3992
真要	-3993
眼里	-3994
短刀	-3995
穿过	-3996
竟有	-3997
粉碎	-3998
精妙	-3999
约会	-4000
练武	-4001
绿色	-4002
老怪	-4003
而为	-4004
胡虏	-4005
脸露	-4006
至少	-4007
荡荡	-4008
血肉	-4009
行出	-4010
要找	-4011
见我	-4012
计较	-4013
贵寺	-4014
贸然	-4015
走向	-4016
踌躇	-4017
迎面	-4018
道清	-4019
都觉	-4020
都说	-4021
钻研	-4022
长袍	-4023
闲事	-4024
除下	-4025
难受	-4026
雪白	-4027
风声	-4028
首座	-4029
马鞭	-4030
骂我	-4031
鸡汤	-4032
鼻中	-4033
▁你这	-4034
▁只有	-4035
▁因此	-4036
▁有人	-4037
一出口	-4038
不作声	-4039
不敢当	-4040
了他的	-4041
了开来	-4042
但随即	-4043
充满了	-4044
另一名	-4045
向乔峰	-4046
在手中	-4047
她身子	-4048
好好的	-4049
好容易	-4050
怎么办	-4051
我给你	-4052
是你的	-4053
有的是	-4054
没一个	-4055
淡淡的	-4056
的一下	-4057
的尸身	-4058
的身子	-4059
眼见他	-4060
穆贵妃	-4061
终究是	-4062
膻中穴	-4063
自己是	-4064
藏经阁	-4065
见到她	-4066
这不是	-4067
那老人	-4068
钧天部	-4069
露出一	-4070
▁宋长老	-4071
▁康广陵	-4072
▁褚万里	-4073
▁这一下	-4074
▁这些人	-4075
▁青袍客	-4076
佛门弟子	-4077
到底是谁	-4078
只不过是	-4079
和慕容复	-4080
大金刚拳	-4081
斗转星移	-4082
穷凶极恶	-4083
脸色大变	-4084
邓百川等	-4085
铁面判官	-4086
长叹一声	-4087
星宿派门人	-4088
▁有	-4089
▁谁	-4090
一副	-4091
一向	-4092
一天	-4093
三次	-4094
上门	-4095
上面	-4096
不弱	-4097
不意	-4098
不约	-4099
与人	-4100
之主	-4101
之位	-4102
之感	-4103
九翼	-4104
亲热	-4105
人马	-4106
他为	-4107
他也	-4108
他和	-4109
他已	-4110
众生	-4111
传音	-4112
佛像	-4113
你却	-4114
侧身	-4115
便也	-4116
傀儡	-4117
先后	-4118
光明	-4119
全仗	-4120
写着	-4121
冷汗	-4122
动了	-4123
化为	-4124
半边	-4125
南征	-4126
去救	-4127
又再	-4128
取了	-4129
口的	-4130
只剩	-4131
只能	-4132
号角	-4133
吟吟	-4134
听香	-4135
告辞	-4136
哈大	-4137
喜悦	-4138
嗒嗒	-4139
嗓子	-4140
嘱咐	-4141
四僧	-4142
外边	-4143
大量	-4144
太多	-4145
奔来	-4146
威震	-4147
孤身	-4148
害人	-4149
家数	-4150
小儿	-4151
小娟	-4152
小茗	-4153
屋子	-4154
干了	-4155
强自	-4156
往他	-4157
徒弟	-4158
心动	-4159
忽地	-4160
惊奇	-4161
想去	-4162
慧真	-4163
我先	-4164
我有	-4165
打猎	-4166
掠过	-4167
教他	-4168
无聊	-4169
无踪	-4170
木板	-4171
条小	-4172
来势	-4173
查明	-4174
树林	-4175
森森	-4176
毒物	-4177
洋洋	-4178
洛阳	-4179
流下	-4180
消息	-4181
源源	-4182
溪水	-4183
滚滚	-4184
火把	-4185
点穴	-4186
特别	-4187
瓜子	-4188
甚喜	-4189
的三	-4190
相同	-4191
眼下	-4192
眼间	-4193
称赞	-4194
竟如	-4195
结果	-4196
老人	-4197
背负	-4198
胜于	-4199
脸如	-4200
腿上	-4201
自言	-4202
苦楚	-4203
葫芦	-4204
虽在	-4205
蚕儿	-4206
要穴	-4207
讲究	-4208
说要	-4209
负心	-4210
足踝	-4211
辽帝	-4212
迎接	-4213
远来	-4214
造诣	-4215
都给	-4216
铜棍	-4217
长臂	-4218
阴毒	-4219
阴谋	-4220
除非	-4221
难看	-4222
顽皮	-4223
顿足	-4224
马匹	-4225
高下	-4226
▁不平	-4227
▁他见	-4228
▁其余	-4229
▁单正	-4230
▁天下	-4231
▁姑娘	-4232
▁次日	-4233
▁此时	-4234
▁老子	-4235
▁要是	-4236
一听到	-4237
上一步	-4238
不相识	-4239
不耐烦	-4240
乖乖的	-4241
了几个	-4242
了开去	-4243
你武功	-4244
兄弟的	-4245
十余名	-4246
半空中	-4247
原来你	-4248
受了伤	-4249
只吓得	-4250
哈大霸	-4251
四个字	-4252
在哪里	-4253
在虚竹	-4254
大和尚	-4255
大师姊	-4256
姑娘的	-4257
心中所	-4258
慕容家	-4259
找不到	-4260
有多少	-4261
段大哥	-4262
燕子坞	-4263
登时便	-4264
的招数	-4265
的掌力	-4266
笑吟吟	-4267
老太太	-4268
老施主	-4269
解开了	-4270
躬身道	-4271
这一拳	-4272
这和尚	-4273
也不知道	-4274
你老人家	-4275
倒也有理	-4276
再也不敢	-4277
北冥真气	-4278
又惊又怒	-4279
自言自语	-4280
说什么也	-4281
那女郎道	-4282
那有什么	-4283
鸠摩智的	-4284
黑衣汉子	-4285
▁段正淳道	-4286
▁阿紫笑道	-4287
天山折梅手	-4288
降龙十八掌	-4289
七十二门绝技	-4290
▁......	-4291
’!	-4292
▁两	-4293
▁啊	-4294
▁萧	-4295
▁马	-4296
一千	-4297
一命	-4298
一带	-4299
一抓	-4300
一拍	-4301
一挺	-4302
七日	-4303
三步	-4304
上冲	-4305
不喜	-4306
不透	-4307
东宗	-4308
为僧	-4309
主持	-4310
之功	-4311
也想	-4312
亲兵	-4313
今年	-4314
会使	-4315
但她	-4316
佛家	-4317
你和	-4318
使剑	-4319
信阳	-4320
像是	-4321
兄台	-4322
光亮	-4323
克制	-4324
入魔	-4325
写的	-4326
制住	-4327
十一	-4328
十个	-4329
单家	-4330
去做	-4331
又来	-4332
反击	-4333
取笑	-4334
可没	-4335
可见	-4336
叹息	-4337
吃的	-4338
吃饭	-4339
各种	-4340
同道	-4341
命丧	-4342
响声	-4343
嘶哑	-4344
回入	-4345
回复	-4346
团团	-4347
在那	-4348
声息	-4349
多时	-4350
大敌	-4351
大祸	-4352
太婆	-4353
头儿	-4354
奔驰	-4355
学得	-4356
平南	-4357
当作	-4358
得起	-4359
必胜	-4360
快去	-4361
念经	-4362
惊异	-4363
惯了	-4364
惶急	-4365
慧方	-4366
我只	-4367
所学	-4368
所授	-4369
打倒	-4370
打听	-4371
拉扯	-4372
拿起	-4373
摇晃	-4374
方始	-4375
明天	-4376
昨晚	-4377
更有	-4378
望海	-4379
本相	-4380
梅兰	-4381
死得	-4382
沙弥	-4383
泥土	-4384
深仇	-4385
湖中	-4386
火刀	-4387
烈酒	-4388
犹似	-4389
猛力	-4390
用处	-4391
的从	-4392
的奇	-4393
的要	-4394
着手	-4395
知我	-4396
知晓	-4397
矮胖	-4398
竟无	-4399
等候	-4400
精通	-4401
繁复	-4402
终身	-4403
缓步	-4404
罗汉	-4405
老三	-4406
而知	-4407
舅母	-4408
舒服	-4409
苍老	-4410
血色	-4411
裤子	-4412
西域	-4413
观心	-4414
讨好	-4415
越走	-4416
越远	-4417
足了	-4418
转动	-4419
轰隆	-4420
过意	-4421
这只	-4422
这边	-4423
送到	-4424
那知	-4425
闭目	-4426
魁梧	-4427
▁他是	-4428
▁岂知	-4429
▁待得	-4430
一路上	-4431
三十年	-4432
不见得	-4433
个明白	-4434
了一人	-4435
了几声	-4436
什么的	-4437
你是谁	-4438
便不再	-4439
修罗刀	-4440
决不是	-4441
决计不	-4442
十七八	-4443
只觉得	-4444
听见过	-4445
喀喇喇	-4446
声喝道	-4447
好一会	-4448
安洞主	-4449
实在太	-4450
已到了	-4451
忙伸手	-4452
我为师	-4453
我可要	-4454
我段誉	-4455
摩诃指	-4456
明明是	-4457
明白了	-4458
极大的	-4459
没良心	-4460
的一个	-4461
的便是	-4462
的只是	-4463
的手臂	-4464
的朋友	-4465
的都是	-4466
真正的	-4467
许多人	-4468
说出来	-4469
跟着又	-4470
轻飘飘	-4471
还不是	-4472
那时候	-4473
霍先生	-4474
▁若不是	-4475
▁陈长老	-4476
不约而同	-4477
乌龟儿子	-4478
卑鄙无耻	-4479
却又如何	-4480
天龙八部	-4481
宗赞王子	-4482
尊姓大名	-4483
当的一声	-4484
感激不尽	-4485
旁观众人	-4486
无怨无仇	-4487
无法可施	-4488
是也不是	-4489
苏星河道	-4490
转念又想	-4491
过了一会	-4492
闻到一阵	-4493
阿朱姊姊	-4494
顿了一顿	-4495
▁不平道人	-4496
▁段誉心道	-4497
▁王夫人道	-4498
▁那宫女道	-4499
说不出话来	-4500
乌龟儿子王八蛋	-4501
一世	-4502
一推	-4503
一枚	-4504
一脚	-4505
一门	-4506
三年	-4507
三日	-4508
三槐	-4509
三百	-4510
不容	-4511
不转	-4512
丑八	-4513
东首	-4514
两根	-4515
中冲	-4516
为敌	-4517
之日	-4518
书画	-4519
乱石	-4520
了吧	-4521
了断	-4522
人众	-4523
从头	-4524
伤处	-4525
低微	-4526
住在	-4527
住手	-4528
你做	-4529
你有	-4530
便又	-4531
便打	-4532
倾听	-4533
假的	-4534
僧袍	-4535
关怀	-4536
内伤	-4537
冒犯	-4538
农家	-4539
凛然	-4540
几天	-4541
出招	-4542
分从	-4543
办到	-4544
即刻	-4545
却见	-4546
却道	-4547
原谅	-4548
及早	-4549
发了	-4550
口边	-4551
同去	-4552
向天	-4553
向山	-4554
响起	-4555
图中	-4556
坏人	-4557
外号	-4558
外的	-4559
大出	-4560
大恶	-4561
大智	-4562
大气	-4563
天真	-4564
失手	-4565
委屈	-4566
孙三	-4567
定神	-4568
尘土	-4569
尽心	-4570
山东	-4571
山洞	-4572
崖上	-4573
平生	-4574
庄子	-4575
引得	-4576
怒火	-4577
怕他	-4578
性情	-4579
恶贯	-4580
情人	-4581
慷慨	-4582
或者	-4583
所思	-4584
所见	-4585
手忙	-4586
扶着	-4587
抓着	-4588
抚摸	-4589
拜师	-4590
拳脚	-4591
按住	-4592
挡在	-4593
挥手	-4594
提气	-4595
提着	-4596
提防	-4597
握住	-4598
改装	-4599
教你	-4600
数招	-4601
无处	-4602
无恶	-4603
无措	-4604
无言	-4605
最爱	-4606
有关	-4607
有甚	-4608
本参	-4609
正经	-4610
此理	-4611
死我	-4612
毒气	-4613
江山	-4614
渊源	-4615
满盈	-4616
漆黑	-4617
灯火	-4618
燕国	-4619
玩笑	-4620
用的	-4621
白子	-4622
白棋	-4623
的行	-4624
皱纹	-4625
盘算	-4626
相识	-4627
瞧在	-4628
矮小	-4629
破口	-4630
碧烟	-4631
禽兽	-4632
竟将	-4633
纵跃	-4634
练得	-4635
缘故	-4636
老儿	-4637
老实	-4638
脑中	-4639
脸现	-4640
自在	-4641
草原	-4642
莫名	-4643
虽不	-4644
蟒蛇	-4645
讥嘲	-4646
让她	-4647
读书	-4648
责罚	-4649
走来	-4650
走火	-4651
转向	-4652
这事	-4653
迢迢	-4654
退出	-4655
逐出	-4656
部位	-4657
酒杯	-4658
长须	-4659
隔了	-4660
面上	-4661
颠倒	-4662
饮酒	-4663
魂飞	-4664
麻痒	-4665
▁不知	-4666
▁你想	-4667
▁你说	-4668
▁后来	-4669
▁当时	-4670
▁玄生	-4671
▁过得	-4672
▁这个	-4673
一见到	-4674
下了一	-4675
不见了	-4676
不过是	-4677
丑八怪	-4678
了上去	-4679
他身子	-4680
你是我	-4681
出家人	-4682
十余人	-4683
南慕容	-4684
却也是	-4685
又是一	-4686
名弟子	-4687
多谢你	-4688
大踏步	-4689
将自己	-4690
微微一	-4691
怎么了	-4692
怎么会	-4693
恶狠狠	-4694
我这个	-4695
手中的	-4696
数十丈	-4697
数十人	-4698
杀了你	-4699
李傀儡	-4700
男子汉	-4701
的姑娘	-4702
的情景	-4703
眼光中	-4704
第一大	-4705
第一次	-4706
第二个	-4707
老前辈	-4708
脑海中	-4709
见不到	-4710
说了这	-4711
跟我们	-4712
这两人	-4713
这几天	-4714
这番话	-4715
那宫女	-4716
那矮子	-4717
鬼头刀	-4718
▁华赫艮	-4719
▁童姥道	-4720
▁这一次	-4721
一个人来	-4722
亲眼见到	-4723
今日之事	-4724
全身一震	-4725
半个时辰	-4726
叫了出来	-4727
向丁春秋	-4728
大不相同	-4729
少林弟子	-4730
少林群僧	-4731
岂有此理	-4732
开口说话	-4733
心念一动	-4734
恶贯满盈	-4735
意料之外	-4736
我跟你说	-4737
执法长老	-4738
拜我为师	-4739
掉在地下	-4740
无恶不作	-4741
星宿派的	-4742
朱丹臣道	-4743
武林盟主	-4744
江湖上的	-4745
素不相识	-4746
马蹄声响	-4747
默不作声	-4748
▁枯荣大师	-4749
▁段誉心中	-4750
▁萧峰心想	-4751
▁过了一会	-4752
六脉神剑的	-4753
从怀中取出一	-4754
▁可	-4755
▁四	-4756
一意	-4757
一拂	-4758
一振	-4759
上身	-4760
下毒	-4761
不已	-4762
不放	-4763
东南	-4764
两截	-4765
两股	-4766
久仰	-4767
之于	-4768
也曾	-4769
二百	-4770
人所	-4771
人蜂	-4772
从中	-4773
他既	-4774
但在	-4775
作为	-4776
便从	-4777
偷盗	-4778
儿的	-4779
全神	-4780
兵器	-4781
兵马	-4782
其意	-4783
几百	-4784
出其	-4785
刹那	-4786
半天	-4787
又见	-4788
反掌	-4789
发足	-4790
只一	-4791
右肩	-4792
命他	-4793
唯恐	-4794
四方	-4795
圆圈	-4796
在手	-4797
地来	-4798
坏了	-4799
堂堂	-4800
声色	-4801
处置	-4802
多想	-4803
天爷	-4804
太阳	-4805
奋力	-4806
奔行	-4807
奸贼	-4808
好啦	-4809
如山	-4810
宛如	-4811
宛然	-4812
宝刀	-4813
对答	-4814
射来	-4815
将士	-4816
尊驾	-4817
就没	-4818
局面	-4819
山坳	-4820
岂非	-4821
左腕	-4822
左边	-4823
幽幽	-4824
应付	-4825
当场	-4826
当是	-4827
心生	-4828
快来	-4829
怕你	-4830
我佛	-4831
我还	-4832
才知	-4833
打在	-4834
找我	-4835
抽出	-4836
挂念	-4837
挥刀	-4838
撞在	-4839
攻击	-4840
放火	-4841
数月	-4842
断肠	-4843
方向	-4844
无常	-4845
无限	-4846
既不	-4847
是为	-4848
有声	-4849
有礼	-4850
机括	-4851
杂种	-4852
梦姑	-4853
椅上	-4854
正待	-4855
武人	-4856
毫无	-4857
油灯	-4858
深知	-4859
满身	-4860
滴滴	-4861
特异	-4862
狠毒	-4863
疾奔	-4864
疾驰	-4865
痛楚	-4866
瘴气	-4867
白须	-4868
百倍	-4869
的家	-4870
相待	-4871
眼望	-4872
瞧出	-4873
短斧	-4874
穿着	-4875
站直	-4876
竹剑	-4877
素闻	-4878
累得	-4879
耿耿	-4880
背脊	-4881
脉搏	-4882
脚乱	-4883
脸孔	-4884
自杀	-4885
草丛	-4886
血流	-4887
袍袖	-4888
被封	-4889
解脱	-4890
让人	-4891
说法	-4892
赶去	-4893
蹄声	-4894
身亡	-4895
运功	-4896
述说	-4897
遵从	-4898
郎君	-4899
都在	-4900
都想	-4901
都能	-4902
野兽	-4903
铜鼎	-4904
阎王	-4905
非命	-4906
飞刀	-4907
骏马	-4908
高深	-4909
鼻孔	-4910
▁他想	-4911
▁果然	-4912
▁此事	-4913
▁爹爹	-4914
▁现下	-4915
▁至于	-4916
▁还是	-4917
不少人	-4918
不是你	-4919
不理会	-4920
两个人	-4921
中的一	-4922
乔峰的	-4923
了几句	-4924
今而后	-4925
从所未	-4926
从来不	-4927
他武功	-4928
你当真	-4929
刀白风	-4930
包三哥	-4931
北乔峰	-4932
却如何	-4933
又怎能	-4934
向望海	-4935
向阿紫	-4936
和萧峰	-4937
四姊妹	-4938
在空中	-4939
声音道	-4940
大理人	-4941
影无踪	-4942
得更加	-4943
心下暗	-4944
是我的	-4945
的神情	-4946
着一个	-4947
石壁上	-4948
胸口一	-4949
让他们	-4950
说的是	-4951
远远的	-4952
那日在	-4953
音菩萨	-4954
马背上	-4955
▁卓不凡	-4956
▁王姑娘	-4957
▁蓦地里	-4958
▁镇南王	-4959
▁高升泰	-4960
一言不发	-4961
万万不可	-4962
中年汉子	-4963
从未见过	-4964
你这小子	-4965
喃喃的道	-4966
嗤嗤声响	-4967
在江湖上	-4968
声音说道	-4969
大声喝道	-4970
大声说道	-4971
嫣然一笑	-4972
少林高僧	-4973
弹琴老者	-4974
手忙脚乱	-4975
有人说道	-4976
笑了出来	-4977
脸上变色	-4978
西夏驸马	-4979
躬身行礼	-4980
这许多人	-4981
这门功夫	-4982
那也罢了	-4983
那声音道	-4984
黑暗之中	-4985
▁玄慈方丈	-4986
▁过了良久	-4987
▁那女童道	-4988
从怀中取出	-4989
嗤的一声响	-4990
慕容公子的	-4991
那便如何是好	-4992
▁自	-4993
一击	-4994
一摸	-4995
一早	-4996
一行	-4997
三下	-4998
三四	-4999
不够	-5000
不快	-5001
不爱	-5002
不轻	-5003
东边	-5004
中去	-5005
为之	-5006
之忧	-5007
之恩	-5008
之毒	-5009
乘早	-5010
乞丐	-5011
乱刀	-5012
了的	-5013
交好	-5014
亲口	-5015
人手	-5016
什麽	-5017
他便	-5018
传给	-5019
但要	-5020
何事	-5021
依着	-5022
侠义	-5023
侥幸	-5024
便和	-5025
便给	-5026
修练	-5027
借力	-5028
做梦	-5029
停了	-5030
充沛	-5031
内堂	-5032
写道	-5033
军士	-5034
军马	-5035
冰库	-5036
凶恶	-5037
凶狠	-5038
击落	-5039
刀子	-5040
刚好	-5041
匪夷	-5042
千余	-5043
半句	-5044
即是	-5045
又多	-5046
反抗	-5047
取胜	-5048
只感	-5049
同行	-5050
哎哟	-5051
唯有	-5052
啧啧	-5053
喘气	-5054
喧哗	-5055
均感	-5056
块大	-5057
城门	-5058
墙上	-5059
处死	-5060
大响	-5061
大悟	-5062
大雪	-5063
天灵	-5064
天生	-5065
好奇	-5066
如风	-5067
婉妹	-5068
子孙	-5069
害得	-5070
封信	-5071
尊师	-5072
小腹	-5073
尤其	-5074
局棋	-5075
屋外	-5076
山茶	-5077
帮手	-5078
平常	-5079
店中	-5080
弟妹	-5081
当口	-5082
形容	-5083
心口	-5084
心底	-5085
心腹	-5086
快乐	-5087
怎可	-5088
悲酥	-5089
情意	-5090
惊喜	-5091
惊惧	-5092
戏子	-5093
我早	-5094
我自	-5095
戒刀	-5096
所言	-5097
手来	-5098
打我	-5099
打断	-5100
找寻	-5101
折断	-5102
抢到	-5103
招式	-5104
拳打	-5105
拳法	-5106
拿到	-5107
挑战	-5108
挡架	-5109
描淡	-5110
提高	-5111
数千	-5112
时日	-5113
是活	-5114
曾听	-5115
有之	-5116
有异	-5117
有限	-5118
朦胧	-5119
未毕	-5120
本观	-5121
杀生	-5122
来处	-5123
来来	-5124
板门	-5125
极大	-5126
极深	-5127
果真	-5128
柔丝	-5129
样子	-5130
根本	-5131
此番	-5132
死后	-5133
残忍	-5134
毒质	-5135
水轮	-5136
求亲	-5137
泄露	-5138
洞孔	-5139
活命	-5140
流血	-5141
渊博	-5142
游氏	-5143
烧得	-5144
狗屁	-5145
理他	-5146
相思	-5147
相接	-5148
看看	-5149
知她	-5150
知是	-5151
砍去	-5152
神通	-5153
竟尔	-5154
竟没	-5155
笔直	-5156
等我	-5157
约约	-5158
纵声	-5159
缩回	-5160
罕见	-5161
而退	-5162
聚集	-5163
胡人	-5164
脑后	-5165
花园	-5166
草谷	-5167
虽有	-5168
行到	-5169
行字	-5170
见怪	-5171
认输	-5172
说你	-5173
说明	-5174
赞道	-5175
起身	-5176
越想	-5177
踪迹	-5178
身去	-5179
身处	-5180
转了	-5181
辽狗	-5182
运使	-5183
还会	-5184
这件	-5185
退后	-5186
逃生	-5187
道路	-5188
那你	-5189
都灵	-5190
酒碗	-5191
铁棒	-5192
铁链	-5193
锣鼓	-5194
问起	-5195
附近	-5196
随意	-5197
难怪	-5198
面貌	-5199
飞起	-5200
首领	-5201
马头	-5202
骇异	-5203
鬼鬼	-5204
▁人家	-5205
▁你要	-5206
▁姊夫	-5207
▁我要	-5208
▁第一	-5209
▁说着	-5210
▁这般	-5211
▁那么	-5212
▁那些	-5213
一行人	-5214
下毒手	-5215
下马来	-5216
不到一	-5217
不到了	-5218
不知他	-5219
不知是	-5220
与段誉	-5221
之不得	-5222
了个空	-5223
他不得	-5224
伏在地	-5225
何等样	-5226
你性命	-5227
你这么	-5228
使不得	-5229
再加上	-5230
出一个	-5231
十余年	-5232
却仍是	-5233
却哪里	-5234
只是他	-5235
可是他	-5236
各人的	-5237
和自己	-5238
回大理	-5239
在怀里	-5240
大高手	-5241
太师父	-5242
好朋友	-5243
小丫头	-5244
小师妹	-5245
怒之下	-5246
恨不得	-5247
我不能	-5248
戒律院	-5249
放开了	-5250
显然是	-5251
更有人	-5252
有点儿	-5253
杀了他	-5254
没见到	-5255
没见过	-5256
的大事	-5257
的法子	-5258
的规矩	-5259
皇太弟	-5260
目不转	-5261
目光中	-5262
真是假	-5263
老夫人	-5264
萧大哥	-5265
蓬莱派	-5266
轻描淡	-5267
这声音	-5268
这样的	-5269
这贱人	-5270
醉人蜂	-5271
▁你师父	-5272
▁李延宗	-5273
▁段公子	-5274
▁那矮子	-5275
一个少女	-5276
一听之下	-5277
再也不能	-5278
向段誉道	-5279
向虚竹道	-5280
听香水榭	-5281
呼的一声	-5282
她老人家	-5283
如何能够	-5284
悲酥清风	-5285
手足无措	-5286
抓住了他	-5287
无影无踪	-5288
死于非命	-5289
生死符的	-5290
的小姑娘	-5291
走上几步	-5292
走火入魔	-5293
躺在地下	-5294
这么容易	-5295
阿紫笑道	-5296
隐隐约约	-5297
▁太皇太后	-5298
▁段誉见她	-5299
▁萧峰心道	-5300
▁薛慕华道	-5301
▁这么一来	-5302
不由自主的	-5303
........	-5304
;“	-5305
▁为	-5306
▁姓	-5307
一交	-5308
一众	-5309
一共	-5310
一想	-5311
一手	-5312
一拉	-5313
一笔	-5314
三处	-5315
三枝	-5316
不受	-5317
不敬	-5318
不认	-5319
不远	-5320
专心	-5321
世人	-5322
为她	-5323
举止	-5324
之伤	-5325
之苦	-5326
乔兄	-5327
也非	-5328
了那	-5329
人参	-5330
人品	-5331
人声	-5332
以此	-5333
似的	-5334
何人	-5335
何时	-5336
你如	-5337
侄儿	-5338
假扮	-5339
儿女	-5340
儿海	-5341
兄妹	-5342
六个	-5343
关切	-5344
其妙	-5345
典籍	-5346
凝目	-5347
分尸	-5348
别派	-5349
前赴	-5350
劝道	-5351
功劳	-5352
化去	-5353
却仍	-5354
却都	-5355
历代	-5356
去路	-5357
受业	-5358
变招	-5359
只求	-5360
叫她	-5361
各路	-5362
向旁	-5363
和人	-5364
咽道	-5365
响头	-5366
唯一	-5367
商阳	-5368
在内	-5369
多端	-5370
大乱	-5371
大腿	-5372
太监	-5373
太阴	-5374
头脸	-5375
好色	-5376
如飞	-5377
威严	-5378
娘娘	-5379
宋人	-5380
实情	-5381
室中	-5382
寂静	-5383
寻到	-5384
少泽	-5385
就只	-5386
幅画	-5387
平素	-5388
应变	-5389
应声	-5390
府上	-5391
形状	-5392
心无	-5393
忙问	-5394
怪你	-5395
悲愤	-5396
情状	-5397
惨白	-5398
想得	-5399
想着	-5400
惶恐	-5401
成功	-5402
成名	-5403
我做	-5404
戒备	-5405
房门	-5406
所为	-5407
所害	-5408
扭断	-5409
抓去	-5410
抗御	-5411
抵敌	-5412
拼命	-5413
拿去	-5414
拿手	-5415
拿来	-5416
揭开	-5417
救他	-5418
教诲	-5419
数寸	-5420
旁的	-5421
无光	-5422
无辜	-5423
时时	-5424
普渡	-5425
有命	-5426
板壁	-5427
板斧	-5428
极重	-5429
果见	-5430
横蛮	-5431
止湛	-5432
此举	-5433
此节	-5434
歹毒	-5435
每天	-5436
毕生	-5437
气愤	-5438
气海	-5439
求饶	-5440
深湛	-5441
清誉	-5442
满腔	-5443
激动	-5444
点他	-5445
点去	-5446
爸爸	-5447
狠辣	-5448
狮子	-5449
生下	-5450
生于	-5451
由此	-5452
痴心	-5453
的山	-5454
的恶	-5455
直是	-5456
盾牌	-5457
看时	-5458
真力	-5459
瞪视	-5460
秀丽	-5461
秘诀	-5462
称是	-5463
竟似	-5464
端起	-5465
算得	-5466
箭射	-5467
缩手	-5468
老顾	-5469
而立	-5470
脸颊	-5471
自如	-5472
落了	-5473
行动	-5474
行去	-5475
袖子	-5476
袖手	-5477
西宗	-5478
言相	-5479
记挂	-5480
说笑	-5481
谁来	-5482
赢了	-5483
跃上	-5484
身有	-5485
这厮	-5486
这口	-5487
这股	-5488
连说	-5489
退了	-5490
送入	-5491
邀请	-5492
酒量	-5493
里许	-5494
金兰	-5495
铁丑	-5496
阻止	-5497
陈吴	-5498
随后	-5499
霸道	-5500
非凡	-5501
面子	-5502
面颊	-5503
颤动	-5504
颤抖	-5505
飕飕	-5506
驾临	-5507
麻烦	-5508
黄衣	-5509
黑色	-5510
鼻息	-5511
▁他自	-5512
▁再说	-5513
▁只怕	-5514
▁大家	-5515
▁室里	-5516
▁我和	-5517
▁是了	-5518
▁突然	-5519
▁虽然	-5520
▁这等	-5521
▁这里	-5522
▁那时	-5523
▁那知	-5524
一伸手	-5525
丁老怪	-5526
不上来	-5527
不容易	-5528
不成了	-5529
不清楚	-5530
了一层	-5531
了两步	-5532
众武士	-5533
众高僧	-5534
伯父和	-5535
似乎是	-5536
你便是	-5537
你给我	-5538
冰窖中	-5539
努儿海	-5540
却不是	-5541
四长老	-5542
在一株	-5543
地下一	-5544
块石头	-5545
多时辰	-5546
大厅上	-5547
天台山	-5548
女娃娃	-5549
好得很	-5550
并不是	-5551
得如此	-5552
得这么	-5553
怎么啦	-5554
怎么样	-5555
怔怔的	-5556
怪不得	-5557
想法子	-5558
成一片	-5559
我也是	-5560
我便是	-5561
我叫你	-5562
我妈妈	-5563
所使的	-5564
找到了	-5565
拈花指	-5566
放开我	-5567
数百年	-5568
无比的	-5569
是不肯	-5570
有一位	-5571
用力一	-5572
的为是	-5573
的僧人	-5574
的内功	-5575
的功力	-5576
的汉子	-5577
皇帝的	-5578
称之为	-5579
给人家	-5580
给我听	-5581
老天爷	-5582
菩提院	-5583
葛师妹	-5584
虚竹子	-5585
见萧峰	-5586
越想越	-5587
跟他们	-5588
辛双清	-5589
这一着	-5590
都灵子	-5591
阿碧道	-5592
韦陀杵	-5593
▁他二人	-5594
▁吴长老	-5595
▁这一来	-5596
▁钟灵道	-5597
万万不能	-5598
不定主意	-5599
中原豪杰	-5600
之声不绝	-5601
九翼道人	-5602
了这许多	-5603
体内真气	-5604
全神贯注	-5605
出其不意	-5606
匪夷所思	-5607
原来如此	-5608
和风波恶	-5609
在少室山	-5610
契丹人的	-5611
打狗棒法	-5612
拍手笑道	-5613
数百年来	-5614
既是如此	-5615
暗暗叫苦	-5616
石壁上的	-5617
脸上微微	-5618
脸上神色	-5619
自己性命	-5620
身在半空	-5621
▁段誉笑道	-5622
▁霎时之间	-5623
三十六洞洞主	-5624
再好也没有了	-5625
南海鳄神怒道	-5626
▁从	-5627
▁到	-5628
▁如	-5629
▁阿	-5630
》,	-5631
一愕	-5632
一拥	-5633
一撞	-5634
一望	-5635
一翻	-5636
一队	-5637
万一	-5638
三名	-5639
三笑	-5640
上天	-5641
上当	-5642
上得	-5643
不言	-5644
两国	-5645
两天	-5646
丫环	-5647
之首	-5648
也会	-5649
书房	-5650
了口	-5651
了罢	-5652
亦无	-5653
人了	-5654
令她	-5655
以防	-5656
作乱	-5657
作势	-5658
使者	-5659
俘虏	-5660
偷看	-5661
先师	-5662
入口	-5663
入骨	-5664
八字	-5665
公然	-5666
六合	-5667
关节	-5668
其间	-5669
冒险	-5670
凉亭	-5671
几分	-5672
几日	-5673
出的	-5674
分开	-5675
分辨	-5676
到她	-5677
刺出	-5678
北院	-5679
十之	-5680
十天	-5681
十岁	-5682
单是	-5683
占了	-5684
卫辉	-5685
原因	-5686
双刀	-5687
双双	-5688
只在	-5689
只说	-5690
右腿	-5691
司徒	-5692
后的	-5693
听在	-5694
命在	-5695
哑巴	-5696
哼哼	-5697
喝骂	-5698
嗡嗡	-5699
四五	-5700
圆盾	-5701
坐倒	-5702
声声	-5703
处身	-5704
多大	-5705
多问	-5706
够了	-5707
大会	-5708
大小	-5709
大异	-5710
大急	-5711
大战	-5712
大殿	-5713
大袖	-5714
大雨	-5715
奔跑	-5716
她一	-5717
好看	-5718
娶了	-5719
存心	-5720
学了	-5721
安好	-5722
宋辽	-5723
定有	-5724
宫中	-5725
家父	-5726
寂寞	-5727
密密	-5728
小锤	-5729
少有	-5730
少说	-5731
尸身	-5732
岂是	-5733
左侧	-5734
已给	-5735
布置	-5736
师侄	-5737
帮规	-5738
幽草	-5739
幽谷	-5740
弯曲	-5741
归于	-5742
当今	-5743
当地	-5744
心脏	-5745
忘记	-5746
念及	-5747
忽听	-5748
怜惜	-5749
急于	-5750
情由	-5751
惊恐	-5752
惺惺	-5753
成一	-5754
所制	-5755
所擒	-5756
扑到	-5757
打扰	-5758
抛下	-5759
抵赖	-5760
拉住	-5761
招手	-5762
拿着	-5763
捉摸	-5764
损伤	-5765
摸摸	-5766
放入	-5767
救援	-5768
料理	-5769
无奈	-5770
无尽	-5771
既知	-5772
旧事	-5773
昆仑	-5774
易经	-5775
昔年	-5776
是人	-5777
替他	-5778
极强	-5779
树后	-5780
树顶	-5781
梵文	-5782
棺材	-5783
死命	-5784
每人	-5785
求我	-5786
没来	-5787
治病	-5788
泪来	-5789
活得	-5790
混乱	-5791
游骥	-5792
烛火	-5793
然间	-5794
玩意	-5795
番话	-5796
白雾	-5797
的便	-5798
皮袋	-5799
盘旋	-5800
相干	-5801
眉毛	-5802
眼眶	-5803
着你	-5804
睁眼	-5805
磕了	-5806
示意	-5807
神僧	-5808
神妙	-5809
秘奥	-5810
站定	-5811
竹林	-5812
筋斗	-5813
管家	-5814
粉身	-5815
素知	-5816
细看	-5817
绝顶	-5818
绵绵	-5819
羽箭	-5820
而入	-5821
肋骨	-5822
脱口	-5823
脸面	-5824
自会	-5825
自寻	-5826
自必	-5827
花容	-5828
苍白	-5829
英豪	-5830
蝎子	-5831
袭击	-5832
要说	-5833
解救	-5834
认定	-5835
详加	-5836
说出	-5837
赶路	-5838
越说	-5839
跃出	-5840
跃开	-5841
跪拜	-5842
跳动	-5843
躲避	-5844
转来	-5845
迈步	-5846
还想	-5847
这便	-5848
这四	-5849
这座	-5850
这路	-5851
远了	-5852
连珠	-5853
逼我	-5854
道长	-5855
遵命	-5856
金创	-5857
铁笛	-5858
长刀	-5859
长气	-5860
队长	-5861
随从	-5862
难听	-5863
雄浑	-5864
风景	-5865
高声	-5866
高见	-5867
魂不	-5868
黄色	-5869
黑子	-5870
默然	-5871
▁众位	-5872
▁啊哟	-5873
▁当日	-5874
▁当真	-5875
▁群僧	-5876
▁辽国	-5877
一个是	-5878
一出手	-5879
不敌众	-5880
乔三槐	-5881
乔峰那	-5882
也不想	-5883
也不禁	-5884
也说不	-5885
了不少	-5886
于天下	-5887
你叫我	-5888
你知道	-5889
做什么	-5890
光闪动	-5891
六十四	-5892
决不敢	-5893
出来了	-5894
到自己	-5895
动不动	-5896
十八名	-5897
却不能	-5898
却听得	-5899
又有何	-5900
听了这	-5901
在中原	-5902
块大石	-5903
大将军	-5904
大理段	-5905
好汉子	-5906
客店中	-5907
对准了	-5908
差不多	-5909
当然是	-5910
忽然间	-5911
总不能	-5912
我们的	-5913
我和你	-5914
我心中	-5915
打草谷	-5916
敌人的	-5917
断肠散	-5918
是一片	-5919
曾见过	-5920
段相公	-5921
猜到了	-5922
的兵刃	-5923
的小子	-5924
的手指	-5925
的手掌	-5926
的老婆	-5927
眼前一	-5928
等三人	-5929
耳听得	-5930
蒋舵主	-5931
说得上	-5932
谁也没	-5933
达摩院	-5934
这个人	-5935
这是我	-5936
那老仆	-5937
▁乔帮主	-5938
▁他心中	-5939
▁我师父	-5940
▁第三十	-5941
▁第四十	-5942
▁那少年	-5943
上乘武功	-5944
不动声色	-5945
中原群豪	-5946
乱刀分尸	-5947
向段延庆	-5948
向王语嫣	-5949
和朱丹臣	-5950
喀喇一声	-5951
嘿嘿冷笑	-5952
在武林中	-5953
多少时候	-5954
如此了得	-5955
如此说来	-5956
寡不敌众	-5957
就是你的	-5958
巴天石道	-5959
得到讯息	-5960
性命之忧	-5961
情急之下	-5962
料想不到	-5963
淡淡的道	-5964
滚滚而下	-5965
点了穴道	-5966
第一大帮	-5967
缓缓的道	-5968
聚贤庄上	-5969
英雄豪杰	-5970
莫名其妙	-5971
西夏国的	-5972
说过的话	-5973
过意不去	-5974
那女子道	-5975
那少年道	-5976
▁丁春秋道	-5977
从来没见过	-5978
到底是什么	-5979
星宿派弟子	-5980
的一声轻响	-5981
七十二岛岛主	-5982
心中怦怦乱跳	-5983
▁想	-5984
▁连	-5985
一套	-5986
一碗	-5987
不分	-5988
不吃	-5989
不合	-5990
不忘	-5991
不欲	-5992
不离	-5993
东方	-5994
两次	-5995
中秋	-5996
为此	-5997
之强	-5998
之约	-5999
也均	-6000
事到	-6001
五哥	-6002
五年	-6003
井中	-6004
人事	-6005
人数	-6006
他了	-6007
他虽	-6008
仗义	-6009
传下	-6010
传位	-6011
传到	-6012
何足	-6013
作响	-6014
使力	-6015
俊雅	-6016
信口	-6017
倒似	-6018
倒有	-6019
催促	-6020
僵硬	-6021
先夫	-6022
全凭	-6023
全失	-6024
八方	-6025
再要	-6026
冰水	-6027
凝聚	-6028
分心	-6029
分明	-6030
到我	-6031
刺入	-6032
剑伤	-6033
加快	-6034
势众	-6035
勇气	-6036
医道	-6037
十几	-6038
升起	-6039
午间	-6040
半斤	-6041
却在	-6042
厅门	-6043
去势	-6044
去寻	-6045
又不	-6046
又似	-6047
又叫	-6048
又觉	-6049
双眉	-6050
双雄	-6051
双颊	-6052
口口	-6053
叫唤	-6054
叫得	-6055
可想	-6056
后悔	-6057
吐出	-6058
君臣	-6059
听听	-6060
周身	-6061
哇哇	-6062
响亮	-6063
喝得	-6064
喝问	-6065
嗫嚅	-6066
四弟	-6067
因而	-6068
围住	-6069
在先	-6070
城墙	-6071
境界	-6072
处境	-6073
多管	-6074
夜叉	-6075
大开	-6076
大恩	-6077
大批	-6078
大臣	-6079
失望	-6080
失礼	-6081
头皮	-6082
奇了	-6083
奴婢	-6084
如是	-6085
妄动	-6086
妞儿	-6087
子曰	-6088
字迹	-6089
学过	-6090
害你	-6091
宽袍	-6092
对了	-6093
将两	-6094
将到	-6095
小事	-6096
尖锐	-6097
就会	-6098
就在	-6099
就地	-6100
尽可	-6101
尽头	-6102
居高	-6103
山门	-6104
岂可	-6105
岂敢	-6106
崔绿	-6107
左道	-6108
已断	-6109
异状	-6110
很多	-6111
得能	-6112
得要	-6113
心起	-6114
快说	-6115
忸怩	-6116
恐惧	-6117
恩公	-6118
悠悠	-6119
惊诧	-6120
意在	-6121
愕然	-6122
慧轮	-6123
我么	-6124
房来	-6125
所伤	-6126
所有	-6127
打伤	-6128
找他	-6129
抖动	-6130
抢过	-6131
拉他	-6132
拦阻	-6133
挖掘	-6134
捏造	-6135
接住	-6136
摆脱	-6137
摇摇	-6138
撕下	-6139
攻打	-6140
放你	-6141
敌军	-6142
数人	-6143
文武	-6144
方得	-6145
旁边	-6146
日夜	-6147
是死	-6148
晕去	-6149
晚辈	-6150
晚间	-6151
暴躁	-6152
有不	-6153
有事	-6154
有心	-6155
有道	-6156
有难	-6157
服食	-6158
朱碧	-6159
条幅	-6160
板上	-6161
查问	-6162
桌子	-6163
梁上	-6164
椅子	-6165
残杀	-6166
比他	-6167
比试	-6168
水中	-6169
水晶	-6170
求恳	-6171
求道	-6172
沉思	-6173
深恐	-6174
清醒	-6175
游驹	-6176
满意	-6177
点燃	-6178
热血	-6179
焦黄	-6180
牛筋	-6181
牵连	-6182
狂奔	-6183
狗贼	-6184
独斗	-6185
疑团	-6186
疲累	-6187
的么	-6188
的地	-6189
盈盈	-6190
省悟	-6191
看见	-6192
着我	-6193
石上	-6194
碎骨	-6195
立足	-6196
竟不	-6197
约有	-6198
罗唆	-6199
能耐	-6200
自忖	-6201
至今	-6202
花鞋	-6203
若再	-6204
若能	-6205
苦练	-6206
荤腥	-6207
药丸	-6208
菜园	-6209
菜肴	-6210
营帐	-6211
萧某	-6212
葬身	-6213
血痕	-6214
袖中	-6215
要事	-6216
讨厌	-6217
说说	-6218
豪迈	-6219
责备	-6220
贵派	-6221
走远	-6222
跨出	-6223
跨步	-6224
踏上	-6225
身中	-6226
车中	-6227
轻重	-6228
运力	-6229
还我	-6230
这张	-6231
进喜	-6232
进门	-6233
违拗	-6234
逃命	-6235
那天	-6236
铁笼	-6237
铁青	-6238
镇上	-6239
阻拦	-6240
阿三	-6241
阿姊	-6242
陪你	-6243
难题	-6244
颇感	-6245
马背	-6246
黑夜	-6247
黑棋	-6248
鼎盖	-6249
▁他一	-6250
▁你既	-6251
▁可惜	-6252
▁四人	-6253
▁怎地	-6254
▁我可	-6255
▁梅剑	-6256
▁洪基	-6257
▁玄渡	-6258
▁西夏	-6259
一声长	-6260
上写着	-6261
不客气	-6262
不答允	-6263
不要脸	-6264
与自己	-6265
两银子	-6266
也不去	-6267
了一件	-6268
了一张	-6269
了一掌	-6270
了回去	-6271
二师哥	-6272
亲妹子	-6273
任帮主	-6274
你怎地	-6275
你跟我	-6276
几个人	-6277
却始终	-6278
去瞧瞧	-6279
又有谁	-6280
只见那	-6281
可不知	-6282
后会有	-6283
听他说	-6284
嘴角边	-6285
因此而	-6286
在世上	-6287
在身上	-6288
在那里	-6289
天下的	-6290
天大的	-6291
对不住	-6292
崔绿华	-6293
开大步	-6294
当下将	-6295
我只道	-6296
挣扎着	-6297
无人能	-6298
无意中	-6299
是为了	-6300
有一股	-6301
有许多	-6302
有这等	-6303
未必能	-6304
灰衣僧	-6305
点中了	-6306
生生的	-6307
用什么	-6308
的东西	-6309
的力道	-6310
的尸体	-6311
的手腕	-6312
的脾气	-6313
的那个	-6314
空荡荡	-6315
给萧峰	-6316
自己为	-6317
薛先生	-6318
这一指	-6319
这叫做	-6320
这少女	-6321
那老妇	-6322
青石桥	-6323
项绝技	-6324
魂飞魄	-6325
▁吴长风	-6326
▁契丹人	-6327
▁智光道	-6328
▁瑞婆婆	-6329
▁萧峰见	-6330
▁郁光标	-6331
▁鲍千灵	-6332
人多势众	-6333
传功长老	-6334
便在此时	-6335
全冠清道	-6336
到哪里去	-6337
到这里来	-6338
半点也不	-6339
口口声声	-6340
另一人道	-6341
听到这里	-6342
呼的一掌	-6343
定了定神	-6344
将他身子	-6345
将游坦之	-6346
小镜湖畔	-6347
少林寺去	-6348
心中一酸	-6349
性命难保	-6350
慕容老爷	-6351
手中长剑	-6352
掌门师叔	-6353
数十年来	-6354
既然如此	-6355
是契丹人	-6356
武功了得	-6357
求之不得	-6358
火刀火石	-6359
灵鹫宫中	-6360
笑了起来	-6361
继续说道	-6362
说了出来	-6363
谁也不知	-6364
跪倒在地	-6365
跳起身来	-6366
过了半晌	-6367
过了良久	-6368
迈开大步	-6369
这样一个	-6370
那中年人	-6371
都是一惊	-6372
钟夫人道	-6373
非也非也	-6374
▁乌老大道	-6375
▁否则的话	-6376
▁慕容公子	-6377
▁游坦之道	-6378
不约而同的	-6379
叫什么名字	-6380
是什么东西	-6381
清清楚楚的	-6382
的一声惊呼	-6383
果然名不虚传	-6384
男子汉大丈夫	-6385
这话倒也有理	-6386
▁别	-6387
▁听	-6388
▁每	-6389
一发	-6390
一寸	-6391
一提	-6392
一曲	-6393
一本	-6394
一跳	-6395
万难	-6396
下令	-6397
下峰	-6398
不假	-6399
不善	-6400
不守	-6401
不干	-6402
不止	-6403
不灵	-6404
不脱	-6405
丧命	-6406
个大	-6407
临敌	-6408
为重	-6409
之喜	-6410
之态	-6411
乘着	-6412
九转	-6413
也即	-6414
也能	-6415
也还	-6416
二位	-6417
于这	-6418
五德	-6419
他就	-6420
以一	-6421
以下	-6422
以前	-6423
仰慕	-6424
伏击	-6425
但也	-6426
但如	-6427
余婆	-6428
便到	-6429
便都	-6430
便问	-6431
便须	-6432
信中	-6433
倒在	-6434
倔强	-6435
僧侣	-6436
僵尸	-6437
儒生	-6438
全部	-6439
八月	-6440
公道	-6441
其理	-6442
冤家	-6443
冲出	-6444
几条	-6445
几欲	-6446
凡是	-6447
凶猛	-6448
出外	-6449
出寺	-6450
刀剑	-6451
切齿	-6452
加上	-6453
勿要	-6454
半夜	-6455
卫护	-6456
却去	-6457
原本	-6458
去得	-6459
参合	-6460
又即	-6461
及时	-6462
发见	-6463
叛徒	-6464
只知	-6465
可得	-6466
可真	-6467
各派	-6468
名裂	-6469
后患	-6470
后领	-6471
含泪	-6472
听我	-6473
听那	-6474
唱道	-6475
嘴剪	-6476
四顾	-6477
国家	-6478
国王	-6479
在大	-6480
地狱	-6481
垂泪	-6482
墙壁	-6483
大人	-6484
大驾	-6485
天黑	-6486
头晕	-6487
头陀	-6488
女孩	-6489
奸细	-6490
好听	-6491
好让	-6492
如意	-6493
威猛	-6494
娇笑	-6495
学问	-6496
家师	-6497
对人	-6498
对这	-6499
小觑	-6500
少妇	-6501
尸毒	-6502
居住	-6503
左近	-6504
师徒	-6505
带同	-6506
幽香	-6507
弓箭	-6508
张开	-6509
当儿	-6510
必须	-6511
快了	-6512
快些	-6513
患难	-6514
情形	-6515
想念	-6516
慧观	-6517
成千	-6518
成婚	-6519
我劝	-6520
我妈	-6521
我独	-6522
我等	-6523
手一	-6524
才能	-6525
找个	-6526
把守	-6527
抓破	-6528
报复	-6529
抱住	-6530
抵受	-6531
拔刀	-6532
拔剑	-6533
指指	-6534
挥动	-6535
换了	-6536
掌中	-6537
接应	-6538
推想	-6539
推门	-6540
撒谎	-6541
撞到	-6542
收回	-6543
收拾	-6544
救出	-6545
救治	-6546
数尺	-6547
敷上	-6548
料来	-6549
斜斜	-6550
无伦	-6551
无奇	-6552
无已	-6553
日久	-6554
昏迷	-6555
易容	-6556
是也	-6557
晶莹	-6558
更不	-6559
有愧	-6560
有话	-6561
望望	-6562
机缘	-6563
杀手	-6564
来迟	-6565
杯酒	-6566
极乐	-6567
极少	-6568
柔和	-6569
柔声	-6570
根基	-6571
梅花	-6572
横卧	-6573
正想	-6574
正面	-6575
汴梁	-6576
没人	-6577
治好	-6578
法儿	-6579
消失	-6580
消解	-6581
淫戒	-6582
湖边	-6583
烂泥	-6584
然则	-6585
照顾	-6586
燕云	-6587
爱惜	-6588
牵挂	-6589
猎人	-6590
猛击	-6591
猜测	-6592
生事	-6593
畏惧	-6594
番僧	-6595
白衣	-6596
的字	-6597
的走	-6598
盏茶	-6599
相好	-6600
真心	-6601
着她	-6602
着恼	-6603
着脸	-6604
着那	-6605
瞧我	-6606
石洞	-6607
石臼	-6608
碎裂	-6609
磊落	-6610
神威	-6611
福儿	-6612
私情	-6613
稀烂	-6614
空手	-6615
竟已	-6616
竟敢	-6617
红色	-6618
结成	-6619
翻来	-6620
老虎	-6621
而落	-6622
耳目	-6623
胆小	-6624
脓包	-6625
脓血	-6626
脚上	-6627
腾腾	-6628
自管	-6629
舞剑	-6630
花的	-6631
苦笑	-6632
英名	-6633
茫茫	-6634
荒山	-6635
蛮子	-6636
袖箭	-6637
要待	-6638
解下	-6639
解手	-6640
言下	-6641
议论	-6642
记在	-6643
说这	-6644
请起	-6645
败坏	-6646
贱婢	-6647
资质	-6648
赞叹	-6649
跌落	-6650
跟前	-6651
身体	-6652
身入	-6653
身败	-6654
轻声	-6655
连环	-6656
连续	-6657
追到	-6658
逃得	-6659
逼迫	-6660
那姓	-6661
郁闷	-6662
都会	-6663
重要	-6664
钢刀	-6665
锦袍	-6666
镇定	-6667
长发	-6668
闪烁	-6669
陪我	-6670
隐伏	-6671
难事	-6672
震得	-6673
青衫	-6674
顾念	-6675
飞去	-6676
飞奔	-6677
飞扬	-6678
饶了	-6679
首先	-6680
香疤	-6681
驰到	-6682
骆驼	-6683
骗你	-6684
高举	-6685
高招	-6686
魔头	-6687
魔鬼	-6688
黑布	-6689
齐向	-6690
▁两位	-6691
▁他知	-6692
▁他这	-6693
▁大哥	-6694
▁是谁	-6695
▁然而	-6696
▁老衲	-6697
七八人	-6698
不喜欢	-6699
不肯说	-6700
两句话	-6701
之极矣	-6702
也不怕	-6703
了几分	-6704
了几眼	-6705
了这等	-6706
了进来	-6707
仍是一	-6708
他本来	-6709
件兵刃	-6710
会不会	-6711
伸手在	-6712
但段誉	-6713
但这时	-6714
你这小	-6715
你这等	-6716
使的是	-6717
倒不是	-6718
做驸马	-6719
光一闪	-6720
光闪闪	-6721
八个字	-6722
冯阿三	-6723
包先生	-6724
千万万	-6725
却那里	-6726
原来这	-6727
只是个	-6728
叫化子	-6729
咱们的	-6730
嗤嗤嗤	-6731
回来了	-6732
大家都	-6733
大对头	-6734
太阴肺	-6735
如何不	-6736
妈妈的	-6737
始终没	-6738
学会了	-6739
宁死不	-6740
家子弟	-6741
小妹子	-6742
山峰上	-6743
得厉害	-6744
心下大	-6745
想必是	-6746
我的话	-6747
我跟你	-6748
打不过	-6749
指点出	-6750
旁人的	-6751
更无别	-6752
未说完	-6753
爹爹的	-6754
玄慈道	-6755
玄难道	-6756
的不是	-6757
的事情	-6758
的厉害	-6759
的地方	-6760
的少女	-6761
的手段	-6762
的手法	-6763
的神气	-6764
瞧我不	-6765
短斧客	-6766
窍不通	-6767
符圣使	-6768
耶律基	-6769
舅太太	-6770
草丛中	-6771
萧大爷	-6772
许许多	-6773
跟他说	-6774
跟咱们	-6775
跟着便	-6776
这位是	-6777
这家伙	-6778
进喜儿	-6779
那僧人	-6780
金创药	-6781
钟灵的	-6782
长长的	-6783
阎王敌	-6784
雪地中	-6785
饭时分	-6786
鳄嘴剪	-6787
齐声道	-6788
▁公子爷	-6789
▁我爹爹	-6790
▁段夫人	-6791
▁猛听得	-6792
▁那人道	-6793
一个时辰	-6794
一拥而上	-6795
丁春秋的	-6796
两个女子	-6797
也不知是	-6798
也未必能	-6799
了一口气	-6800
低声问道	-6801
只见一个	-6802
叶二娘道	-6803
司空帮主	-6804
司空玄道	-6805
后会有期	-6806
向木婉清	-6807
吴光胜道	-6808
和木婉清	-6809
在他身上	-6810
在少林寺	-6811
如何称呼	-6812
将王语嫣	-6813
忍耐不住	-6814
方丈大师	-6815
旁门左道	-6816
是大理国	-6817
正是阿紫	-6818
段誉忙道	-6819
目不转睛	-6820
破口大骂	-6821
站在一旁	-6822
站直身子	-6823
笑吟吟的	-6824
粉身碎骨	-6825
聋哑老人	-6826
脸上肌肉	-6827
跳了起来	-6828
身败名裂	-6829
这么一来	-6830
邓百川道	-6831
青年公子	-6832
魂飞魄散	-6833
▁慕容博道	-6834
▁本因方丈	-6835
▁萧远山道	-6836
▁虚竹叫道	-6837
▁那少女道	-6838
▁阿朱笑道	-6839
▁顷刻之间	-6840
南海鳄神的	-6841
有什么法子	-6842
的一声大叫	-6843
迷迷糊糊的	-6844
缥缈峰灵鹫宫	-6845
脸上微微一红	-6846
:“......	-6847
:’	-6848
——	-6849
▁,	-6850
▁人	-6851
▁更	-6852
▁若	-6853
▁诸	-6854
▁还	-6855
一万	-6856
一了	-6857
一刻	-6858
一字	-6859
一拜	-6860
一群	-6861
一遍	-6862
三公	-6863
三成	-6864
上升	-6865
上峰	-6866
下盘	-6867
下风	-6868
不传	-6869
不倒	-6870
不宜	-6871
不改	-6872
不杀	-6873
不留	-6874
不闻	-6875
不露	-6876
不须	-6877
与之	-6878
东北	-6879
个小	-6880
为怀	-6881
为非	-6882
义兄	-6883
之数	-6884
之死	-6885
之用	-6886
之礼	-6887
也可	-6888
也在	-6889
了声	-6890
事事	-6891
事出	-6892
人中	-6893
他去	-6894
他对	-6895
令爱	-6896
作个	-6897
你已	-6898
你怕	-6899
你道	-6900
佳人	-6901
侮辱	-6902
便以	-6903
便倒	-6904
便只	-6905
便吃	-6906
便死	-6907
便说	-6908
信了	-6909
偏生	-6910
做人	-6911
做得	-6912
偶尔	-6913
充满	-6914
光芒	-6915
光采	-6916
关冲	-6917
再问	-6918
冰冷	-6919
凛凛	-6920
击在	-6921
函谷	-6922
分手	-6923
前往	-6924
剑锋	-6925
区区	-6926
医生	-6927
半尺	-6928
单凭	-6929
南下	-6930
却如	-6931
却来	-6932
却要	-6933
压根	-6934
厨房	-6935
又从	-6936
又能	-6937
反弹	-6938
口鼻	-6939
叫骂	-6940
可要	-6941
右侧	-6942
各持	-6943
同伴	-6944
吞吐	-6945
周全	-6946
呼啸	-6947
咕咕	-6948
哨声	-6949
哭声	-6950
哭泣	-6951
喘息	-6952
喷出	-6953
四恶	-6954
回身	-6955
回转	-6956
围在	-6957
国的	-6958
图像	-6959
地位	-6960
地洞	-6961
坏事	-6962
埋伏	-6963
城内	-6964
城里	-6965
士卒	-6966
多了	-6967
多瞧	-6968
大仁	-6969
大海	-6970
大起	-6971
大错	-6972
天天	-6973
天意	-6974
太行	-6975
夫子	-6976
奇特	-6977
奇痒	-6978
奉上	-6979
她为	-6980
如来	-6981
如玉	-6982
妹妹	-6983
子是	-6984
学到	-6985
安然	-6986
完了	-6987
完全	-6988
实非	-6989
宾馆	-6990
封住	-6991
小径	-6992
小箭	-6993
小舟	-6994
少了	-6995
屋内	-6996
山壁	-6997
山山	-6998
山道	-6999
峭壁	-7000
巨响	-7001
巴巴	-7002
帮会	-7003
平庸	-7004
幸亏	-7005
幸得	-7006
强忍	-7007
得你	-7008
得胜	-7009
得脱	-7010
心跳	-7011
忍住	-7012
思念	-7013
恃无	-7014
恭喜	-7015
意欲	-7016
成两	-7017
我对	-7018
我怎	-7019
我怕	-7020
我总	-7021
我那	-7022
所使	-7023
才智	-7024
扑通	-7025
打到	-7026
扶住	-7027
承认	-7028
抢出	-7029
护住	-7030
担忧	-7031
拦在	-7032
拷打	-7033
指法	-7034
挡格	-7035
挺剑	-7036
挽回	-7037
摆夷	-7038
改扮	-7039
放箭	-7040
数次	-7041
料知	-7042
断气	-7043
无碍	-7044
无计	-7045
日间	-7046
旦夕	-7047
显示	-7048
曲折	-7049
最为	-7050
月初	-7051
有两	-7052
有气	-7053
未到	-7054
本就	-7055
杀伤	-7056
杀母	-7057
来者	-7058
来自	-7059
枉自	-7060
查察	-7061
棋会	-7062
棋子	-7063
此外	-7064
死里	-7065
殷红	-7066
毁了	-7067
法名	-7068
活人	-7069
活活	-7070
流出	-7071
流星	-7072
消了	-7073
涌出	-7074
深情	-7075
清秀	-7076
渐远	-7077
渔网	-7078
渗出	-7079
湖畔	-7080
满口	-7081
满头	-7082
激射	-7083
火折	-7084
灵动	-7085
牛羊	-7086
猛烈	-7087
猪狗	-7088
王家	-7089
现今	-7090
琢磨	-7091
甚轻	-7092
生性	-7093
生病	-7094
画中	-7095
疯疯	-7096
痛苦	-7097
白玉	-7098
白雪	-7099
百岁	-7100
的两	-7101
的头	-7102
的灵	-7103
皆是	-7104
目睹	-7105
相传	-7106
相烦	-7107
相遇	-7108
真凶	-7109
瞧她	-7110
石嫂	-7111
碧绿	-7112
礼部	-7113
祁六	-7114
神奇	-7115
神道	-7116
祟祟	-7117
积雪	-7118
等他	-7119
等到	-7120
粗鲁	-7121
精明	-7122
紧闭	-7123
细想	-7124
结为	-7125
老仙	-7126
而他	-7127
而复	-7128
而视	-7129
而论	-7130
耳里	-7131
胆战	-7132
胡言	-7133
脑门	-7134
自觉	-7135
花树	-7136
苏辙	-7137
荣华	-7138
萧兄	-7139
薄幸	-7140
西方	-7141
要在	-7142
要打	-7143
说也	-7144
请了	-7145
请到	-7146
谢过	-7147
负在	-7148
越多	-7149
踢出	-7150
身为	-7151
身戒	-7152
身负	-7153
身躯	-7154
过人	-7155
连使	-7156
迳自	-7157
追去	-7158
追逐	-7159
送命	-7160
逐一	-7161
途径	-7162
通天	-7163
道儿	-7164
那样	-7165
邪毒	-7166
邪门	-7167
重围	-7168
重的	-7169
铁套	-7170
锁片	-7171
镜子	-7172
长绳	-7173
长长	-7174
问题	-7175
隔着	-7176
面红	-7177
鞭子	-7178
顾忌	-7179
驰出	-7180
驰去	-7181
骨肉	-7182
黑黝	-7183
鼓声	-7184
齐出	-7185
▁公子	-7186
▁哪知	-7187
▁总算	-7188
▁我家	-7189
▁来到	-7190
▁楚王	-7191
▁段郎	-7192
一件事	-7193
一样的	-7194
一死战	-7195
三十余	-7196
上马背	-7197
下头去	-7198
不必再	-7199
不成话	-7200
不起来	-7201
中有人	-7202
为两截	-7203
之极了	-7204
之间的	-7205
也不懂	-7206
也是个	-7207
了一片	-7208
了一礼	-7209
了两下	-7210
云老四	-7211
什么话	-7212
他不住	-7213
他心中	-7214
他的话	-7215
伸舌头	-7216
但见她	-7217
住了她	-7218
你的话	-7219
你表哥	-7220
你要我	-7221
便不能	-7222
倘若我	-7223
偏偏要	-7224
其实是	-7225
出声来	-7226
到段誉	-7227
占上风	-7228
却不敢	-7229
压根儿	-7230
原来他	-7231
双手一	-7232
向那人	-7233
听段誉	-7234
和阿碧	-7235
哼一声	-7236
地不怕	-7237
声大作	-7238
大宋的	-7239
天不怕	-7240
太师伯	-7241
她身上	-7242
好妹子	-7243
害得我	-7244
对得起	-7245
对方的	-7246
将上去	-7247
小僧是	-7248
已不过	-7249
得十分	-7250
恃无恐	-7251
我姊夫	-7252
我实在	-7253
我当真	-7254
我本来	-7255
手下的	-7256
打了个	-7257
擒住了	-7258
无名指	-7259
无量洞	-7260
是一只	-7261
是丐帮	-7262
有一日	-7263
有如此	-7264
有这么	-7265
本来是	-7266
每一招	-7267
没料到	-7268
用不着	-7269
百余人	-7270
的情状	-7271
的来历	-7272
的武学	-7273
的男子	-7274
的脸上	-7275
瞧着他	-7276
瞧瞧你	-7277
笑嘻嘻	-7278
第二招	-7279
给段誉	-7280
胖和尚	-7281
能不能	-7282
脚步声	-7283
落入了	-7284
说得是	-7285
说着从	-7286
贾老者	-7287
走到他	-7288
转念间	-7289
还没死	-7290
这一来	-7291
这二人	-7292
这人的	-7293
这会儿	-7294
这几句	-7295
这几日	-7296
这恶人	-7297
迢迢的	-7298
那酒保	-7299
金算盘	-7300
黑黝黝	-7301
▁干光豪	-7302
▁段誉在	-7303
▁玄难道	-7304
▁黑玫瑰	-7305
一动不动	-7306
一瞥眼间	-7307
与木婉清	-7308
丐帮帮众	-7309
中原群雄	-7310
临死之时	-7311
为了什么	-7312
乔峰那厮	-7313
乱成一团	-7314
众位兄弟	-7315
你怎么了	-7316
倒在地下	-7317
兴复大燕	-7318
决一死战	-7319
几个时辰	-7320
分从左右	-7321
千千万万	-7322
和李秋水	-7323
和赵钱孙	-7324
噗的一声	-7325
大宋官兵	-7326
太阴肺经	-7327
好端端地	-7328
如何是好	-7329
实是难以	-7330
将他杀了	-7331
将我杀了	-7332
小小年纪	-7333
平平无奇	-7334
年纪轻轻	-7335
心下甚喜	-7336
恍然大悟	-7337
想到此处	-7338
手下留情	-7339
执法弟子	-7340
抢上前去	-7341
拜伏在地	-7342
本因方丈	-7343
此人武功	-7344
满脸都是	-7345
盏茶时分	-7346
眼睛瞎了	-7347
知道自己	-7348
精神一振	-7349
脸色惨白	-7350
袍袖一拂	-7351
许许多多	-7352
轻描淡写	-7353
轻轻抚摸	-7354
轻飘飘的	-7355
这些日子	-7356
这小丫头	-7357
鬼鬼祟祟	-7358
▁乔峰心想	-7359
▁徐长老道	-7360
▁旁观众人	-7361
▁玉虚散人	-7362
的声音叫道	-7363
十八名契丹武士	-7364
.........	-7365
▁见	-7366
一半	-7367
一同	-7368
一女	-7369
一拐	-7370
一探	-7371
一枝	-7372
一紧	-7373
一记	-7374
万死	-7375
万毒	-7376
万状	-7377
丈外	-7378
三条	-7379
上他	-7380
上岸	-7381
不允	-7382
不孝	-7383
不怀	-7384
不接	-7385
不提	-7386
不问	-7387
不高	-7388
两掌	-7389
两柄	-7390
两穴	-7391
严峻	-7392
中军	-7393
为主	-7394
为胜	-7395
久闻	-7396
之不	-7397
之大	-7398
乐祸	-7399
乒乓	-7400
也未	-7401
也道	-7402
了吗	-7403
争夺	-7404
争斗	-7405
于一	-7406
于人	-7407
井口	-7408
交了	-7409
亵渎	-7410
人也	-7411
人士	-7412
仇怨	-7413
仍不	-7414
从不	-7415
他以	-7416
他想	-7417
他自	-7418
他见	-7419
他连	-7420
仙子	-7421
以上	-7422
任脉	-7423
传令	-7424
伯母	-7425
似有	-7426
但只	-7427
但听	-7428
但对	-7429
你对	-7430
你跟	-7431
使这	-7432
侍候	-7433
依法	-7434
便再	-7435
便当	-7436
便见	-7437
保全	-7438
信笺	-7439
倒地	-7440
倒要	-7441
假死	-7442
催动	-7443
僻处	-7444
儿俩	-7445
先帝	-7446
光临	-7447
入内	-7448
全家	-7449
关连	-7450
兴奋	-7451
其他	-7452
再使	-7453
再想	-7454
再高	-7455
写信	-7456
冲入	-7457
决心	-7458
冷清	-7459
几名	-7460
击得	-7461
别来	-7462
别过	-7463
制止	-7464
加倍	-7465
劲敌	-7466
势道	-7467
勒马	-7468
十斤	-7469
半日	-7470
单打	-7471
南来	-7472
却有	-7473
却非	-7474
去求	-7475
去罢	-7476
参详	-7477
又都	-7478
受此	-7479
口唇	-7480
只消	-7481
各家	-7482
合散	-7483
名种	-7484
名称	-7485
名门	-7486
听过	-7487
味道	-7488
咕嘟	-7489
哀求	-7490
唠叨	-7491
四川	-7492
四海	-7493
回事	-7494
在外	-7495
在头	-7496
地上	-7497
地势	-7498
城头	-7499
境内	-7500
复国	-7501
外道	-7502
多多	-7503
多看	-7504
大吼	-7505
大局	-7506
大显	-7507
大路	-7508
天神	-7509
天边	-7510
太重	-7511
失足	-7512
奔腾	-7513
奸人	-7514
如同	-7515
如狂	-7516
妻儿	-7517
姑妈	-7518
娃娃	-7519
婆娘	-7520
嫁了	-7521
学艺	-7522
安静	-7523
官府	-7524
实已	-7525
容色	-7526
寒气	-7527
对望	-7528
寻找	-7529
将疑	-7530
小嘴	-7531
小康	-7532
少冲	-7533
尾巴	-7534
川西	-7535
席上	-7536
并骑	-7537
幸灾	-7538
广大	-7539
座大	-7540
开恩	-7541
弄鬼	-7542
当前	-7543
当胸	-7544
微弱	-7545
心法	-7546
怨仇	-7547
怪异	-7548
情郎	-7549
惊骇	-7550
惨酷	-7551
惴惴	-7552
成肉	-7553
我听	-7554
我姓	-7555
我既	-7556
所受	-7557
手背	-7558
打去	-7559
打败	-7560
扮作	-7561
抓来	-7562
折而	-7563
拨开	-7564
拿了	-7565
指望	-7566
挣脱	-7567
掌握	-7568
探头	-7569
掳去	-7570
掷去	-7571
携手	-7572
摆布	-7573
摸到	-7574
撞上	-7575
放羊	-7576
救她	-7577
敬畏	-7578
数万	-7579
斟酒	-7580
无事	-7581
无双	-7582
无心	-7583
无知	-7584
昏昏	-7585
易如	-7586
更甚	-7587
木桨	-7588
木梯	-7589
本人	-7590
本意	-7591
朴者	-7592
机会	-7593
来做	-7594
来头	-7595
来看	-7596
极好	-7597
柔软	-7598
树丛	-7599
止歇	-7600
正当	-7601
步步	-7602
武帝	-7603
殊无	-7604
母女	-7605
每个	-7606
比划	-7607
气得	-7608
气象	-7609
水声	-7610
水性	-7611
油布	-7612
沿着	-7613
注视	-7614
派遣	-7615
流转	-7616
深处	-7617
淳哥	-7618
混入	-7619
清规	-7620
湖上	-7621
烛光	-7622
烦恶	-7623
煎熬	-7624
熊蛇	-7625
父皇	-7626
牙关	-7627
猛兽	-7628
玩的	-7629
瓶塞	-7630
用了	-7631
田地	-7632
男的	-7633
疾冲	-7634
白白	-7635
的亲	-7636
的爬	-7637
相处	-7638
相差	-7639
相称	-7640
相逢	-7641
相避	-7642
相隔	-7643
看你	-7644
瞧了	-7645
短见	-7646
石级	-7647
砍了	-7648
破烂	-7649
碗中	-7650
礼数	-7651
神魂	-7652
禅杖	-7653
突见	-7654
竟也	-7655
第五	-7656
等了	-7657
红晕	-7658
红的	-7659
练过	-7660
结下	-7661
结拜	-7662
绳索	-7663
罕有	-7664
罗嗦	-7665
罩门	-7666
罪名	-7667
署名	-7668
群盗	-7669
老汉	-7670
肩上	-7671
胭脂	-7672
胸腹	-7673
自作	-7674
自有	-7675
自认	-7676
芙蓉	-7677
落魄	-7678
藏着	-7679
虚名	-7680
虽无	-7681
要从	-7682
要死	-7683
要胁	-7684
覆去	-7685
见是	-7686
视而	-7687
言辞	-7688
认出	-7689
记着	-7690
许我	-7691
证道	-7692
话是	-7693
诡异	-7694
误了	-7695
说去	-7696
请便	-7697
谷底	-7698
豪气	-7699
贤侄	-7700
赶回	-7701
越奔	-7702
越看	-7703
越过	-7704
足尖	-7705
身的	-7706
过你	-7707
过招	-7708
运用	-7709
这对	-7710
进入	-7711
进攻	-7712
连出	-7713
追上	-7714
送给	-7715
逃脱	-7716
逼他	-7717
道旁	-7718
遭了	-7719
那使	-7720
那张	-7721
那条	-7722
都被	-7723
里的	-7724
量力	-7725
钢镖	-7726
铸成	-7727
长辈	-7728
闪闪	-7729
防备	-7730
阵阵	-7731
陡地	-7732
陷害	-7733
隐没	-7734
雪恨	-7735
震动	-7736
非常	-7737
非我	-7738
鞭打	-7739
顶上	-7740
领军	-7741
颜面	-7742
飞来	-7743
首次	-7744
首脑	-7745
马前	-7746
马屁	-7747
马鞍	-7748
骂人	-7749
骂他	-7750
鲜卑	-7751
鼎中	-7752
,:“	-7753
▁他的	-7754
▁又想	-7755
▁又过	-7756
▁只觉	-7757
▁弟子	-7758
▁我想	-7759
▁是以	-7760
▁莫非	-7761
▁阁下	-7762
丁老贼	-7763
七八糟	-7764
不得已	-7765
不是了	-7766
不是她	-7767
不知她	-7768
不过去	-7769
中一个	-7770
为天下	-7771
主人的	-7772
乌先生	-7773
乔大哥	-7774
乖孩子	-7775
了一只	-7776
了这样	-7777
他们都	-7778
他性命	-7779
他身上	-7780
众人都	-7781
体内的	-7782
你不是	-7783
你不能	-7784
你干么	-7785
便不是	-7786
假惺惺	-7787
做皇帝	-7788
出一掌	-7789
到了极	-7790
到头来	-7791
华司徒	-7792
却全然	-7793
参合庄	-7794
又有人	-7795
及不上	-7796
只盼能	-7797
同归于	-7798
听而不	-7799
和合散	-7800
咱们便	-7801
咱们是	-7802
哪一位	-7803
哪里还	-7804
唯我独	-7805
围住了	-7806
在一个	-7807
在桌上	-7808
在此处	-7809
在脸上	-7810
块岩石	-7811
壁上的	-7812
大不了	-7813
大碗酒	-7814
天灵盖	-7815
姜老者	-7816
实在是	-7817
封书信	-7818
将萧峰	-7819
山茶花	-7820
开眼界	-7821
张大了	-7822
往情深	-7823
性命的	-7824
惊心动	-7825
我丈夫	-7826
我只好	-7827
我徒儿	-7828
我还是	-7829
手指一	-7830
抓住她	-7831
拱手道	-7832
指挥使	-7833
擒拿手	-7834
救了我	-7835
是一件	-7836
是一门	-7837
有一事	-7838
束手待	-7839
殊不知	-7840
段正游	-7841
氏父子	-7842
气的道	-7843
流露出	-7844
清凉寺	-7845
然后再	-7846
熊蛇丸	-7847
玄字辈	-7848
用得着	-7849
的却是	-7850
的家伙	-7851
的少年	-7852
的时候	-7853
的物事	-7854
的用意	-7855
的目光	-7856
的解药	-7857
的身份	-7858
眼珠子	-7859
知道她	-7860
竟如此	-7861
第一流	-7862
答应了	-7863
算不得	-7864
给他的	-7865
给你听	-7866
缠住了	-7867
老和尚	-7868
老婆子	-7869
言语中	-7870
贼贱人	-7871
越说越	-7872
身不由	-7873
轰隆隆	-7874
近年来	-7875
这姑娘	-7876
那一个	-7877
那小子	-7878
那汉子	-7879
那真是	-7880
那美妇	-7881
那胖子	-7882
那里去	-7883
门功夫	-7884
马兄弟	-7885
黑衣人	-7886
====	-7887
▁一路上	-7888
▁乔峰见	-7889
▁他心下	-7890
▁众人都	-7891
▁众弟子	-7892
▁傅思归	-7893
▁秦家寨	-7894
▁虚竹见	-7895
▁这一招	-7896
▁这件事	-7897
▁阿碧道	-7898
▁龚光杰	-7899
一怔之下	-7900
一生之中	-7901
丁春秋道	-7902
不住口的	-7903
不知是否	-7904
与少林派	-7905
两条大汉	-7906
也不以为	-7907
乱七八糟	-7908
什么武功	-7909
伸出右手	-7910
何等样人	-7911
佛门子弟	-7912
你也不用	-7913
便向段誉	-7914
六十四卦	-7915
内功深厚	-7916
再也无法	-7917
出手相救	-7918
到底如何	-7919
单打独斗	-7920
却又不敢	-7921
同归于尽	-7922
吐番武士	-7923
向鸠摩智	-7924
否则的话	-7925
听而不闻	-7926
和丁春秋	-7927
和云中鹤	-7928
和公冶乾	-7929
和巴天石	-7930
和阮星竹	-7931
咱们走吧	-7932
哪里还有	-7933
唯我独尊	-7934
四面八方	-7935
回过身来	-7936
在大理国	-7937
坐在地下	-7938
天下无敌	-7939
契丹胡虏	-7940
好生奇怪	-7941
宝石指环	-7942
将信将疑	-7943
将自己的	-7944
少林绝技	-7945
幸灾乐祸	-7946
康广陵道	-7947
心下甚是	-7948
心中所想	-7949
快取解药	-7950
怒目而视	-7951
想起一事	-7952
我家公子	-7953
支持不住	-7954
易如反掌	-7955
暗暗心惊	-7956
有恃无恐	-7957
来到中原	-7958
格格娇笑	-7959
武林中人	-7960
死里逃生	-7961
段誉心想	-7962
永远不会	-7963
汪帮主的	-7964
沉吟半晌	-7965
游坦之的	-7966
点穴功夫	-7967
片刻间便	-7968
的声音道	-7969
的小和尚	-7970
真气内力	-7971
瞪了一眼	-7972
秦红棉道	-7973
脸露微笑	-7974
自行了断	-7975
英雄了得	-7976
行走江湖	-7977
话未说完	-7978
说些什么	-7979
负在背上	-7980
走了出来	-7981
身形一晃	-7982
达摩祖师	-7983
还说什么	-7984
这些年来	-7985
连连摇头	-7986
连连点头	-7987
退了两步	-7988
那也不用	-7989
钟万仇道	-7990
阿紫姑娘	-7991
陈长老道	-7992
鲜血淋漓	-7993
齐声惊呼	-7994
▁便在这时	-7995
▁巴天石道	-7996
▁段誉心下	-7997
▁片刻之间	-7998
▁说话之间	-7999
▁黑衣女郎	-8000
九转熊蛇丸	-8001
姓段的小子	-8002
得干干净净	-8003
手太阴肺经	-8004
拿不定主意	-8005
不知如何是好	-8006
慕容先生墓前	-8007
轻轻叹了口气	-8008
▁六	-8009
▁喂	-8010
▁左	-8011
▁群	-8012
一干	-8013
一排	-8014
一概	-8015
一箭	-8016
一转	-8017
七宝	-8018
七岁	-8019
三岁	-8020
三脚	-8021
上涌	-8022
上都	-8023
下垂	-8024
下得	-8025
下落	-8026
不以	-8027
不保	-8028
不屑	-8029
不浅	-8030
两尺	-8031
两道	-8032
严守	-8033
个头	-8034
为父	-8035
举步	-8036
之学	-8037
之高	-8038
乘势	-8039
也觉	-8040
乱叫	-8041
了然	-8042
五虎	-8043
亮了	-8044
人间	-8045
仇恨	-8046
他将	-8047
他日	-8048
令我	-8049
以至	-8050
休得	-8051
休想	-8052
众多	-8053
会穴	-8054
传你	-8055
传入	-8056
传的	-8057
伤痕	-8058
伯山	-8059
伸入	-8060
何惧	-8061
你只	-8062
佳客	-8063
依你	-8064
侧过	-8065
侯爷	-8066
便行	-8067
倏地	-8068
倒好	-8069
停手	-8070
傲慢	-8071
像我	-8072
入怀	-8073
全心	-8074
八友	-8075
共戴	-8076
其人	-8077
冒昧	-8078
农女	-8079
冤孽	-8080
冲天	-8081
冲杀	-8082
凄苦	-8083
几岁	-8084
几招	-8085
凶残	-8086
出丑	-8087
出头	-8088
出气	-8089
出自	-8090
击中	-8091
到你	-8092
剑柄	-8093
劈空	-8094
助他	-8095
包袱	-8096
化作	-8097
十足	-8098
千金	-8099
南北	-8100
南疆	-8101
即行	-8102
却似	-8103
却只	-8104
厅堂	-8105
又没	-8106
双全	-8107
发毛	-8108
受到	-8109
变了	-8110
口出	-8111
只叫	-8112
可否	-8113
右脚	-8114
右边	-8115
吃惊	-8116
吃过	-8117
同日	-8118
名声	-8119
名誉	-8120
后背	-8121
听由	-8122
吸入	-8123
吹笛	-8124
和气	-8125
哪一	-8126
善阐	-8127
四女	-8128
四散	-8129
圆圆	-8130
圣水	-8131
地的	-8132
均已	-8133
垂头	-8134
大举	-8135
大患	-8136
大振	-8137
大眼	-8138
大礼	-8139
大难	-8140
大雄	-8141
天宁	-8142
天性	-8143
夺理	-8144
夺眶	-8145
奇险	-8146
奉告	-8147
她也	-8148
她虽	-8149
好话	-8150
好酒	-8151
如电	-8152
如雷	-8153
妄自	-8154
姓乔	-8155
娘子	-8156
存想	-8157
学的	-8158
宋奚	-8159
害了	-8160
容情	-8161
对待	-8162
将之	-8163
尊崇	-8164
小叫	-8165
小说	-8166
少爷	-8167
少阳	-8168
尖声	-8169
尸横	-8170
尽了	-8171
屈服	-8172
山崖	-8173
山羊	-8174
崔兄	-8175
巨岩	-8176
巴朱	-8177
师尊	-8178
帐中	-8179
带领	-8180
常常	-8181
幌动	-8182
应手	-8183
底细	-8184
度外	-8185
异样	-8186
强弱	-8187
形相	-8188
影踪	-8189
往日	-8190
径自	-8191
待你	-8192
得快	-8193
循着	-8194
微动	-8195
心血	-8196
忏悔	-8197
志在	-8198
忙中	-8199
快极	-8200
快马	-8201
怒喝	-8202
怕我	-8203
急了	-8204
急驰	-8205
性格	-8206
怪物	-8207
总得	-8208
恐怕	-8209
恶贼	-8210
恼恨	-8211
悲伤	-8212
惊人	-8213
惊得	-8214
惧意	-8215
想像	-8216
感动	-8217
愿意	-8218
憔悴	-8219
戏弄	-8220
我倒	-8221
我叫	-8222
我曾	-8223
所居	-8224
所练	-8225
打过	-8226
投掷	-8227
折扇	-8228
拆解	-8229
拍落	-8230
拜了	-8231
拜会	-8232
拿他	-8233
换上	-8234
捣乱	-8235
掌柜	-8236
接到	-8237
携着	-8238
摔入	-8239
擒获	-8240
放回	-8241
敏仪	-8242
救得	-8243
敬仰	-8244
斗得	-8245
断臂	-8246
断门	-8247
斯文	-8248
无甚	-8249
无疑	-8250
无边	-8251
既无	-8252
时已	-8253
是真	-8254
是给	-8255
晕倒	-8256
有力	-8257
有功	-8258
有失	-8259
有恩	-8260
有毒	-8261
服饰	-8262
朝中	-8263
朝廷	-8264
木屑	-8265
杀她	-8266
来个	-8267
来求	-8268
来给	-8269
来袭	-8270
松了	-8271
松子	-8272
极力	-8273
极难	-8274
枢密	-8275
树墙	-8276
横行	-8277
欺骗	-8278
歉然	-8279
止观	-8280
正明	-8281
此信	-8282
殿中	-8283
每年	-8284
比你	-8285
比剑	-8286
气概	-8287
汹涌	-8288
没死	-8289
河中	-8290
泛泛	-8291
活泼	-8292
流露	-8293
浑身	-8294
浪子	-8295
消遣	-8296
涔涔	-8297
深意	-8298
满地	-8299
瀑布	-8300
火星	-8301
火花	-8302
灯笼	-8303
烂漫	-8304
熟悉	-8305
熟知	-8306
爱子	-8307
爽快	-8308
独自	-8309
猜到	-8310
玉洞	-8311
瓜葛	-8312
甚远	-8313
生得	-8314
生恐	-8315
男儿	-8316
男装	-8317
畏缩	-8318
留在	-8319
番邦	-8320
疑窦	-8321
痕迹	-8322
痴痴	-8323
白发	-8324
白茶	-8325
百骸	-8326
的份	-8327
的已	-8328
皮囊	-8329
目中	-8330
直言	-8331
看清	-8332
真好	-8333
眼睁	-8334
着急	-8335
瞧来	-8336
知客	-8337
石门	-8338
神气	-8339
离地	-8340
穿了	-8341
窗子	-8342
端倪	-8343
笑了	-8344
等情	-8345
答道	-8346
粗浅	-8347
粪担	-8348
纯熟	-8349
纷飞	-8350
细针	-8351
绕过	-8352
绝招	-8353
统率	-8354
缝中	-8355
群中	-8356
翻过	-8357
老二	-8358
老师	-8359
老朽	-8360
考较	-8361
而非	-8362
耽搁	-8363
肚腹	-8364
胆大	-8365
胡僧	-8366
胡里	-8367
腋下	-8368
膂力	-8369
臂上	-8370
臣子	-8371
自伤	-8372
自受	-8373
自若	-8374
舞动	-8375
船头	-8376
药性	-8377
莫要	-8378
薄的	-8379
藏在	-8380
虚实	-8381
虽多	-8382
虽已	-8383
血液	-8384
行止	-8385
袋中	-8386
袍子	-8387
被迫	-8388
装作	-8389
装束	-8390
西南	-8391
西边	-8392
要和	-8393
讥刺	-8394
让开	-8395
记号	-8396
话中	-8397
话长	-8398
诡秘	-8399
说客	-8400
说罢	-8401
赫然	-8402
走入	-8403
走过	-8404
起落	-8405
越近	-8406
跃到	-8407
跃进	-8408
跟在	-8409
身侧	-8410
身披	-8411
躺在	-8412
躺着	-8413
轻灵	-8414
辱骂	-8415
边的	-8416
近来	-8417
还怕	-8418
还未	-8419
这大	-8420
进退	-8421
远去	-8422
远离	-8423
连问	-8424
迟了	-8425
迷惘	-8426
追击	-8427
送信	-8428
送去	-8429
遗言	-8430
遵守	-8431
避位	-8432
那只	-8433
那晚	-8434
酒意	-8435
酒来	-8436
酬谢	-8437
醒了	-8438
重行	-8439
钻出	-8440
铁拐	-8441
铁甲	-8442
锦缎	-8443
长拳	-8444
门内	-8445
门前	-8446
闭上	-8447
闯进	-8448
阳光	-8449
阴柔	-8450
阵中	-8451
阵势	-8452
阿宝	-8453
陈设	-8454
险地	-8455
陪伴	-8456
隐居	-8457
隐秘	-8458
难了	-8459
霹雳	-8460
非为	-8461
非得	-8462
非笑	-8463
靠在	-8464
面的	-8465
风吹	-8466
风响	-8467
飞过	-8468
食物	-8469
饶命	-8470
饿了	-8471
驯狮	-8472
驾到	-8473
高处	-8474
高大	-8475
鸡犬	-8476
黄衫	-8477
鼓荡	-8478
鼓起	-8479
▁世上	-8480
▁二人	-8481
▁众僧	-8482
▁但如	-8483
▁兄弟	-8484
▁听说	-8485
▁大理	-8486
▁好在	-8487
▁我先	-8488
▁我这	-8489
▁旁人	-8490
▁最后	-8491
▁游骥	-8492
▁皇上	-8493
▁看来	-8494
▁菊剑	-8495
▁过彦	-8496
▁这日	-8497
▁这次	-8498
▁那小	-8499
一步步	-8500
一辈子	-8501
上一拍	-8502
上一眼	-8503
下去了	-8504
不以为	-8505
不小心	-8506
不得的	-8507
不舒服	-8508
不许他	-8509
不说话	-8510
不足以	-8511
不高兴	-8512
两个小	-8513
为了要	-8514
也不再	-8515
也只有	-8516
了一把	-8517
了一遍	-8518
了回来	-8519
了许多	-8520
人内力	-8521
他什么	-8522
他是个	-8523
伤口中	-8524
你到底	-8525
你妈妈	-8526
你对我	-8527
你还不	-8528
你这样	-8529
共戴天	-8530
别人的	-8531
到之处	-8532
到了他	-8533
到了这	-8534
到口边	-8535
到大理	-8536
十六岁	-8537
却不见	-8538
又怎会	-8539
双手乱	-8540
口鲜血	-8541
只怕要	-8542
只是想	-8543
向众人	-8544
吞吐吐	-8545
听不到	-8546
听到她	-8547
呆呆的	-8548
呛啷啷	-8549
咱们到	-8550
啊段誉	-8551
善阐侯	-8552
嗫嚅道	-8553
四个人	-8554
地下的	-8555
多少人	-8556
大厅中	-8557
大是不	-8558
契丹的	-8559
她心中	-8560
如何敢	-8561
姓什么	-8562
孟老者	-8563
学武功	-8564
害死的	-8565
对段誉	-8566
寻常的	-8567
将这些	-8568
将阿紫	-8569
小小的	-8570
小时候	-8571
少商穴	-8572
幽谷客	-8573
得有人	-8574
得罪你	-8575
得要命	-8576
总之是	-8577
想得到	-8578
想起了	-8579
意中人	-8580
成了一	-8581
我不想	-8582
我知道	-8583
我身上	-8584
手指上	-8585
手背上	-8586
打手势	-8587
执法僧	-8588
抢着道	-8589
抱住了	-8590
数百名	-8591
料不到	-8592
断门刀	-8593
无言可	-8594
是不能	-8595
有不少	-8596
有的说	-8597
朦朦胧	-8598
木姊姊	-8599
杀死了	-8600
来得及	-8601
梅花鹿	-8602
森然道	-8603
正是那	-8604
段誉在	-8605
段誉已	-8606
每日里	-8607
没有了	-8608
牟尼堂	-8609
玄寂道	-8610
生怕死	-8611
男一女	-8612
百会穴	-8613
的一只	-8614
的一响	-8615
的一条	-8616
的儿子	-8617
的念头	-8618
的本事	-8619
的老者	-8620
的脑袋	-8621
的良机	-8622
的行径	-8623
的道理	-8624
知道的	-8625
碾坊中	-8626
竹林中	-8627
符敏仪	-8628
第二次	-8629
等四人	-8630
练成了	-8631
给我的	-8632
美人儿	-8633
肯不肯	-8634
臂之力	-8635
自己人	-8636
自己却	-8637
见到这	-8638
贱女人	-8639
起眉头	-8640
跟着我	-8641
身子已	-8642
身戒寺	-8643
转眼间	-8644
过了头	-8645
这一剑	-8646
这一惊	-8647
这三个	-8648
这些话	-8649
这功夫	-8650
这女子	-8651
远不如	-8652
逍遥散	-8653
那贱人	-8654
重重打	-8655
长臂叟	-8656
闭上了	-8657
险些儿	-8658
韦陀掌	-8659
▁只听他	-8660
▁常言道	-8661
▁那美妇	-8662
一个耳光	-8663
一声长叹	-8664
一言未毕	-8665
三十年来	-8666
不敢贸然	-8667
不知不觉	-8668
两个时辰	-8669
乔装改扮	-8670
也不打紧	-8671
也是好的	-8672
他为什么	-8673
你奶奶的	-8674
你有什么	-8675
全身发抖	-8676
决计不能	-8677
冷笑一声	-8678
出手相助	-8679
函谷八友	-8680
到了何处	-8681
加快脚步	-8682
十之八九	-8683
却也不敢	-8684
双手合什	-8685
各路英雄	-8686
向游坦之	-8687
向赵钱孙	-8688
吞吞吐吐	-8689
和段正淳	-8690
和过彦之	-8691
咳嗽一声	-8692
哭了出来	-8693
四大长老	-8694
在此聚会	-8695
坐倒在地	-8696
大喝一声	-8697
大大不同	-8698
大智分舵	-8699
天下无双	-8700
夺眶而出	-8701
对望一眼	-8702
尖声叫道	-8703
尽心竭力	-8704
巴朱二人	-8705
希奇古怪	-8706
年轻女子	-8707
幽幽的道	-8708
微微一惊	-8709
心下暗暗	-8710
心中一喜	-8711
恶狠狠的	-8712
惊喜交集	-8713
惊心动魄	-8714
感到一阵	-8715
慈悲为怀	-8716
慕容家的	-8717
慢了一步	-8718
我又不是	-8719
报仇雪恨	-8720
搂在怀里	-8721
救命之恩	-8722
无穷无尽	-8723
无量山中	-8724
是不错的	-8725
是什么人	-8726
更有什么	-8727
朦朦胧胧	-8728
本来面目	-8729
来不及了	-8730
来到江南	-8731
来岁年纪	-8732
来干什么	-8733
格格一笑	-8734
横了一眼	-8735
武功虽高	-8736
武学高手	-8737
段延庆的	-8738
段誉体内	-8739
涔涔而下	-8740
游氏双雄	-8741
相距不过	-8742
瞧不出来	-8743
瞧在眼里	-8744
知不知道	-8745
空荡荡地	-8746
等一干人	-8747
结义兄弟	-8748
给我瞧瞧	-8749
翻来覆去	-8750
英俊潇洒	-8751
薛神医的	-8752
虚竹先生	-8753
西北角上	-8754
见到段誉	-8755
说什么话	-8756
说到后来	-8757
说来惭愧	-8758
说着伸手	-8759
说话声音	-8760
贪生怕死	-8761
走上两步	-8762
赵钱孙道	-8763
起了眉头	-8764
跟随在后	-8765
跪下磕头	-8766
跪在地下	-8767
身子一晃	-8768
这中间的	-8769
这么大的	-8770
连连摇手	-8771
那老人道	-8772
阿朱笑道	-8773
黑衣僧道	-8774
▁大理段氏	-8775
▁星宿老怪	-8776
▁智光大师	-8777
▁朱丹臣道	-8778
▁白世镜道	-8779
▁萧峰听她	-8780
▁阿紫叫道	-8781
他说到这里	-8782
全神贯注的	-8783
六脉神剑经	-8784
唯我独尊功	-8785
对望了一眼	-8786
少林寺方丈	-8787
少林派武功	-8788
忽听得身后	-8789
是什么意思	-8790
段誉点头道	-8791
阴阳和合散	-8792
六脉神剑剑谱	-8793
听得清清楚楚	-8794
无崖子老先生	-8795
六合唯我独尊功	-8796
▁巴天石和朱丹臣	-8797
,”	-8798
▁没	-8799
▁的	-8800
▁看	-8801
▁瞧	-8802
一变	-8803
一响	-8804
一喜	-8805
一尺	-8806
一弹	-8807
一战	-8808
一扬	-8809
一挡	-8810
一是	-8811
一等	-8812
一败	-8813
七天	-8814
三天	-8815
三掌	-8816
不乐	-8817
不值	-8818
不医	-8819
不暇	-8820
不精	-8821
不舍	-8822
不良	-8823
不讲	-8824
不难	-8825
与众	-8826
与你	-8827
世代	-8828
两招	-8829
两枝	-8830
个儿	-8831
中途	-8832
为力	-8833
为奇	-8834
为礼	-8835
为笑	-8836
久了	-8837
义母	-8838
之乐	-8839
之交	-8840
之分	-8841
之差	-8842
之罪	-8843
之身	-8844
乘坐	-8845
九人	-8846
九部	-8847
也当	-8848
也甚	-8849
也知	-8850
也难	-8851
书架	-8852
乱语	-8853
事了	-8854
事务	-8855
二爷	-8856
于胸	-8857
云南	-8858
五百	-8859
五脏	-8860
交换	-8861
亲军	-8862
亲近	-8863
人生	-8864
从她	-8865
他与	-8866
他这	-8867
会意	-8868
传了	-8869
传于	-8870
传言	-8871
伤我	-8872
伤的	-8873
伸了	-8874
似玉	-8875
似笑	-8876
但一	-8877
但愿	-8878
但求	-8879
何不	-8880
作弄	-8881
你听	-8882
你猜	-8883
你连	-8884
使个	-8885
使动	-8886
便成	-8887
信步	-8888
倒转	-8889
偏要	-8890
傻瓜	-8891
僧衣	-8892
先到	-8893
全意	-8894
八万	-8895
八卦	-8896
八荒	-8897
公鸡	-8898
六路	-8899
关上	-8900
其事	-8901
内侍	-8902
再斗	-8903
再难	-8904
冰冰	-8905
冲着	-8906
凄凉	-8907
凑巧	-8908
凡夫	-8909
凶悍	-8910
凶神	-8911
出路	-8912
列宗	-8913
列祖	-8914
刚从	-8915
刚猛	-8916
到地	-8917
到第	-8918
前行	-8919
剑的	-8920
剑神	-8921
剑通	-8922
割断	-8923
劝阻	-8924
功德	-8925
功颂	-8926
劲道	-8927
势头	-8928
勉力	-8929
勾当	-8930
包的	-8931
医术	-8932
十名	-8933
千刀	-8934
千载	-8935
千难	-8936
却未	-8937
厢房	-8938
去探	-8939
去跟	-8940
又怕	-8941
发掌	-8942
变幻	-8943
口吃	-8944
古今	-8945
叫好	-8946
叮当	-8947
可喜	-8948
号叫	-8949
各门	-8950
同胞	-8951
名为	-8952
后山	-8953
吮吸	-8954
命令	-8955
哭叫	-8956
啸声	-8957
四溅	-8958
回思	-8959
回目	-8960
在前	-8961
在湖	-8962
地底	-8963
坦然	-8964
塞入	-8965
墙头	-8966
多承	-8967
大作	-8968
大惑	-8969
大意	-8970
大手	-8971
大火	-8972
大车	-8973
大阵	-8974
天明	-8975
太医	-8976
太远	-8977
夭夭	-8978
失声	-8979
失笑	-8980
头痛	-8981
夹攻	-8982
夹着	-8983
奇高	-8984
奉命	-8985
奔近	-8986
好久	-8987
好些	-8988
好胜	-8989
如不	-8990
如今	-8991
如潮	-8992
如神	-8993
如雨	-8994
妖人	-8995
委顿	-8996
安葬	-8997
宋朝	-8998
实则	-8999
宣泄	-9000
家将	-9001
家属	-9002
容他	-9003
宽心	-9004
宾客	-9005
寒冷	-9006
寒毛	-9007
寥寥	-9008
对敌	-9009
寺院	-9010
寻死	-9011
射死	-9012
小侄	-9013
小半	-9014
小孩	-9015
尚书	-9016
尚请	-9017
山中	-9018
巧语	-9019
差别	-9020
差遣	-9021
已决	-9022
已尽	-9023
已死	-9024
已自	-9025
师命	-9026
带到	-9027
干的	-9028
年间	-9029
庄上	-9030
庄主	-9031
应当	-9032
废人	-9033
开来	-9034
张望	-9035
强辞	-9036
当着	-9037
得报	-9038
得是	-9039
得来	-9040
御前	-9041
微侧	-9042
微有	-9043
微臣	-9044
心存	-9045
心怀	-9046
心所	-9047
心爱	-9048
心花	-9049
忧色	-9050
快捷	-9051
快跑	-9052
快速	-9053
念念	-9054
怎知	-9055
怒放	-9056
思议	-9057
急叫	-9058
恨你	-9059
恩怨	-9060
悄没	-9061
悬枢	-9062
惊疑	-9063
惨叫	-9064
惨死	-9065
惩罚	-9066
想想	-9067
意图	-9068
成亲	-9069
成都	-9070
我好	-9071
我真	-9072
我给	-9073
我都	-9074
战战	-9075
战阵	-9076
所不	-9077
所作	-9078
所发	-9079
手的	-9080
扑上	-9081
打误	-9082
扫地	-9083
扬威	-9084
把我	-9085
抓到	-9086
抢先	-9087
抢步	-9088
报了	-9089
抿嘴	-9090
拆招	-9091
拔起	-9092
招后	-9093
挂怀	-9094
指向	-9095
指教	-9096
挑拨	-9097
挡住	-9098
捉到	-9099
掌击	-9100
掌缘	-9101
探子	-9102
揭露	-9103
援手	-9104
搂住	-9105
摔在	-9106
撞得	-9107
撞的	-9108
改了	-9109
攻到	-9110
故世	-9111
救活	-9112
教人	-9113
数声	-9114
数步	-9115
斜睨	-9116
新鲜	-9117
无情	-9118
无理	-9119
无策	-9120
旧情	-9121
时光	-9122
明言	-9123
是假	-9124
是大	-9125
是血	-9126
晕红	-9127
暖阁	-9128
更为	-9129
替你	-9130
最大	-9131
最近	-9132
月貌	-9133
有云	-9134
有缘	-9135
有若	-9136
有违	-9137
服下	-9138
服色	-9139
朝夕	-9140
木然	-9141
未死	-9142
本书	-9143
杀戒	-9144
杖头	-9145
来回	-9146
来寻	-9147
来路	-9148
枉了	-9149
枯井	-9150
柔情	-9151
柱子	-9152
树干	-9153
棉花	-9154
棋力	-9155
棋艺	-9156
横飞	-9157
欺近	-9158
正宗	-9159
此仇	-9160
此生	-9161
死无	-9162
气势	-9163
气闷	-9164
求见	-9165
汗水	-9166
污秽	-9167
没做	-9168
沧江	-9169
泉涌	-9170
活埋	-9171
流泪	-9172
深感	-9173
清光	-9174
清晨	-9175
温和	-9176
满面	-9177
潜入	-9178
火头	-9179
灵效	-9180
灵活	-9181
灵验	-9182
点中	-9183
然是	-9184
照着	-9185
照耀	-9186
爬行	-9187
爱慕	-9188
牛毛	-9189
狰狞	-9190
狼头	-9191
玉枕	-9192
玩玩	-9193
理所	-9194
生前	-9195
生灵	-9196
由于	-9197
登基	-9198
的口	-9199
的臭	-9200
的酒	-9201
皇爷	-9202
直击	-9203
直奔	-9204
直至	-9205
相应	-9206
相抗	-9207
相触	-9208
眉目	-9209
真实	-9210
眼儿	-9211
着火	-9212
睡觉	-9213
瞑目	-9214
知己	-9215
短的	-9216
石子	-9217
石板	-9218
破涕	-9219
硬要	-9220
示下	-9221
礼物	-9222
离了	-9223
空隙	-9224
窒滞	-9225
端木	-9226
竹杆	-9227
笛声	-9228
筋脉	-9229
简陋	-9230
粗声	-9231
精力	-9232
糟了	-9233
紫色	-9234
纯系	-9235
结识	-9236
绝非	-9237
绿波	-9238
缘由	-9239
罢休	-9240
羊儿	-9241
老还	-9242
而得	-9243
而易	-9244
耳鼓	-9245
肚皮	-9246
背叛	-9247
能有	-9248
脉门	-9249
脏腑	-9250
脚力	-9251
脸蛋	-9252
自后	-9253
自由	-9254
至阳	-9255
色鬼	-9256
花匠	-9257
花肥	-9258
花言	-9259
苍生	-9260
苦受	-9261
茶叶	-9262
草堆	-9263
荷荷	-9264
菊竹	-9265
藏身	-9266
虚点	-9267
虽说	-9268
蠢才	-9269
行此	-9270
被她	-9271
裸女	-9272
要取	-9273
要看	-9274
要请	-9275
见见	-9276
计议	-9277
诗词	-9278
诚恳	-9279
诬陷	-9280
说一	-9281
请坐	-9282
谁是	-9283
谈笑	-9284
谢谢	-9285
谭青	-9286
豪客	-9287
负义	-9288
贵人	-9289
贼子	-9290
走罢	-9291
赶快	-9292
起伏	-9293
起初	-9294
越大	-9295
跃下	-9296
蹊跷	-9297
轧轧	-9298
辽主	-9299
过节	-9300
迎敌	-9301
运起	-9302
这姓	-9303
进关	-9304
违抗	-9305
连日	-9306
追出	-9307
追随	-9308
透明	-9309
逗留	-9310
遮掩	-9311
那倒	-9312
那马	-9313
郁郁	-9314
释迦	-9315
重会	-9316
重手	-9317
钓杆	-9318
钻进	-9319
铁匠	-9320
锁喉	-9321
长声	-9322
长草	-9323
附体	-9324
陪罪	-9325
难逃	-9326
雄心	-9327
雪亮	-9328
雷公	-9329
雷动	-9330
非礼	-9331
面色	-9332
鞋子	-9333
顺势	-9334
预备	-9335
驰来	-9336
骂你	-9337
骨头	-9338
高崖	-9339
鼻端	-9340
▁下次	-9341
▁不久	-9342
▁主人	-9343
▁他虽	-9344
▁他说	-9345
▁六人	-9346
▁到底	-9347
▁各位	-9348
▁如果	-9349
▁孩儿	-9350
▁御营	-9351
▁慧真	-9352
▁我说	-9353
▁明王	-9354
▁有些	-9355
▁此后	-9356
▁神山	-9357
▁第四	-9358
▁若是	-9359
▁酒保	-9360
一张脸	-9361
一时也	-9362
一点儿	-9363
一直在	-9364
一笔勾	-9365
一走了	-9366
一阵风	-9367
七十余	-9368
三长老	-9369
上写道	-9370
上的字	-9371
下一个	-9372
不出去	-9373
不可测	-9374
不在乎	-9375
不得不	-9376
不来的	-9377
临死时	-9378
丹田中	-9379
为的是	-9380
为自己	-9381
为非作	-9382
之人的	-9383
也不动	-9384
也有人	-9385
了一位	-9386
了一半	-9387
了一块	-9388
了一身	-9389
了两个	-9390
了自己	-9391
二十四	-9392
亲哥哥	-9393
什么鬼	-9394
他父亲	-9395
他胸口	-9396
何足道	-9397
你一个	-9398
你不肯	-9399
你也不	-9400
你也是	-9401
你心中	-9402
你是个	-9403
你真的	-9404
你身上	-9405
便如是	-9406
倒是不	-9407
兀自未	-9408
先生的	-9409
入怀中	-9410
兰剑道	-9411
其中的	-9412
决不可	-9413
决不肯	-9414
决不致	-9415
凶神恶	-9416
出一步	-9417
功颂德	-9418
千万别	-9419
南京城	-9420
却十分	-9421
却原来	-9422
却是个	-9423
及得上	-9424
发脾气	-9425
只怕你	-9426
只打得	-9427
叫他们	-9428
号人物	-9429
向来是	-9430
向西行	-9431
听得她	-9432
哽咽道	-9433
嗒嗒嗒	-9434
嘶哑着	-9435
回去吧	-9436
在丐帮	-9437
在萧峰	-9438
在途中	-9439
大辽国	-9440
天色已	-9441
太行山	-9442
女孩儿	-9443
她肩头	-9444
好功夫	-9445
好极了	-9446
如何会	-9447
姓慕容	-9448
娇滴滴	-9449
实不愿	-9450
实不知	-9451
实是不	-9452
害死我	-9453
将虚竹	-9454
将钟灵	-9455
小女子	-9456
小王爷	-9457
小觑了	-9458
少泽剑	-9459
就不会	-9460
居然还	-9461
巴司空	-9462
师叔祖	-9463
幅图画	-9464
开玩笑	-9465
得好快	-9466
得段誉	-9467
得片刻	-9468
得紧了	-9469
心中的	-9470
心满意	-9471
念及此	-9472
想不出	-9473
慢慢的	-9474
成肉酱	-9475
我不会	-9476
我心里	-9477
我是个	-9478
我确是	-9479
抢过去	-9480
抱拳道	-9481
拿着一	-9482
接口道	-9483
摔死了	-9484
撞上了	-9485
数十名	-9486
斗不过	-9487
明明白	-9488
是一位	-9489
更有何	-9490
月光下	-9491
有丝毫	-9492
有没有	-9493
未免太	-9494
朱四哥	-9495
枚松球	-9496
枢密使	-9497
柯百岁	-9498
树林中	-9499
根手指	-9500
梅兰竹	-9501
森森的	-9502
欺侮我	-9503
死不能	-9504
死之后	-9505
段姑娘	-9506
没来由	-9507
澜沧江	-9508
玩意儿	-9509
百忙中	-9510
的大仇	-9511
的相貌	-9512
的眼睛	-9513
眉头微	-9514
眼见她	-9515
睁大了	-9516
瞧不出	-9517
瞧不起	-9518
知道这	-9519
神色间	-9520
站起来	-9521
第二人	-9522
算盘珠	-9523
给自己	-9524
老爷子	-9525
老还童	-9526
背上一	-9527
胜过了	-9528
腐尸毒	-9529
范骅道	-9530
表少爷	-9531
褚兄弟	-9532
西夏的	-9533
要是我	-9534
要杀我	-9535
见师父	-9536
见阿紫	-9537
误打误	-9538
请各位	-9539
身旁的	-9540
转马头	-9541
辽国的	-9542
这一脚	-9543
这名字	-9544
这奸贼	-9545
这局棋	-9546
这时他	-9547
进房来	-9548
透不过	-9549
遇到了	-9550
道而行	-9551
避开了	-9552
邓大哥	-9553
那一位	-9554
那人的	-9555
那孩子	-9556
那玉像	-9557
那老丐	-9558
都不禁	-9559
都是一	-9560
顾不得	-9561
风四哥	-9562
黑衣僧	-9563
龟儿子	-9564
▁严妈妈	-9565
▁乔大爷	-9566
▁人丛中	-9567
▁出尘子	-9568
▁哪知道	-9569
▁哲罗星	-9570
▁大丈夫	-9571
▁大理国	-9572
▁我瞧你	-9573
▁玄慈道	-9574
▁皇太叔	-9575
▁那胖子	-9576
▁霎时间	-9577
▁青城派	-9578
一人说道	-9579
一拍大腿	-9580
一窍不通	-9581
一般无异	-9582
一见之下	-9583
一转念间	-9584
上乘内功	-9585
下的毒手	-9586
不怀好意	-9587
与王语嫣	-9588
丐帮众人	-9589
两名弟子	-9590
两名汉子	-9591
中年僧人	-9592
为了何事	-9593
也决不会	-9594
了一大片	-9595
了他一眼	-9596
了他性命	-9597
亲眼目睹	-9598
从今而后	-9599
伸出手来	-9600
似笑非笑	-9601
低声说道	-9602
你别生气	-9603
光明磊落	-9604
全心全意	-9605
兴复燕国	-9606
出手伤人	-9607
列祖列宗	-9608
到了极处	-9609
到少林寺	-9610
刷的一声	-9611
前任帮主	-9612
十余丈外	-9613
千万不能	-9614
千难万难	-9615
厉声喝道	-9616
又是什么	-9617
双膝一软	-9618
受业恩师	-9619
可想而知	-9620
和汪帮主	-9621
响声不绝	-9622
响成一片	-9623
哭了起来	-9624
嘻嘻一笑	-9625
四肢百骸	-9626
多管闲事	-9627
大呼小叫	-9628
大喜之下	-9629
大师兄道	-9630
大金刚掌	-9631
天真烂漫	-9632
天龙寺中	-9633
太祖长拳	-9634
如此厉害	-9635
始终无法	-9636
对你不起	-9637
山羊胡子	-9638
帮主之位	-9639
强辞夺理	-9640
得罪了你	-9641
御前护卫	-9642
心中又是	-9643
心花怒放	-9644
怎地如此	-9645
我们三人	-9646
所作所为	-9647
提高声音	-9648
放在地下	-9649
无言可答	-9650
无量玉壁	-9651
明明白白	-9652
昏昏沉沉	-9653
最多不过	-9654
杀人放火	-9655
李秋水的	-9656
梅兰菊竹	-9657
歌功颂德	-9658
武功家数	-9659
武功虽强	-9660
段誉心道	-9661
毒蛇毒虫	-9662
活在世上	-9663
流下泪来	-9664
深不可测	-9665
爹爹妈妈	-9666
珍珑棋局	-9667
着实不小	-9668
着实了得	-9669
硬生生的	-9670
童姥怒道	-9671
置之度外	-9672
胡言乱语	-9673
胡里胡涂	-9674
脸上又是	-9675
脸色一沉	-9676
膻中气海	-9677
自寻短见	-9678
花容月貌	-9679
花言巧语	-9680
见到自己	-9681
观音菩萨	-9682
言下之意	-9683
说也奇怪	-9684
说来话长	-9685
说话之人	-9686
负心薄幸	-9687
身在何处	-9688
转过了头	-9689
过彦之道	-9690
返老还童	-9691
这两句话	-9692
这小子的	-9693
远远望见	-9694
道清大师	-9695
避位为僧	-9696
饶你性命	-9697
鸡犬不留	-9698
黄眉僧道	-9699
齐声叫道	-9700
▁少林群僧	-9701
▁此言一出	-9702
▁段誉大叫	-9703
▁邓百川道	-9704
▁那女郎道	-9705
▁黄眉僧道	-9706
乔三槐夫妇	-9707
五虎断门刀	-9708
任丐帮帮主	-9709
和慕容公子	-9710
如何对得起	-9711
姑苏慕容家	-9712
娶西夏公主	-9713
慕容老施主	-9714
拍的一声响	-9715
段誉摇头道	-9716
活得不耐烦	-9717
生平从所未	-9718
皱起了眉头	-9719
破解生死符	-9720
说什么也不	-9721
▁那西夏武士	-9722
再也忍耐不住	-9723
大出意料之外	-9724
说什么也不肯	-9725
说着站起身来	-9726
铁面判官单正	-9727
......’	-9728
少林七十二绝技	-9729
八荒六合唯我独尊功	-9730
▁先	-9731
▁刚	-9732
▁天	-9733
▁庄	-9734
▁敝	-9735
▁段	-9736
一二	-9737
一匹	-9738
一并	-9739
一抖	-9740
一晚	-9741
一杖	-9742
一杯	-9743
一着	-9744
一粒	-9745
一节	-9746
一部	-9747
一间	-9748
七人	-9749
三军	-9750
三间	-9751
上代	-9752
上加	-9753
下子	-9754
下此	-9755
下过	-9756
不使	-9757
不准	-9758
不失	-9759
不怒	-9760
东来	-9761
丝竹	-9762
两边	-9763
两颗	-9764
中带	-9765
丹青	-9766
为一	-9767
为帝	-9768
之以	-9769
之别	-9770
之形	-9771
之後	-9772
之恨	-9773
之父	-9774
之状	-9775
之王	-9776
之策	-9777
九天	-9778
也算	-9779
也说	-9780
书上	-9781
书中	-9782
书法	-9783
乾坤	-9784
二老	-9785
五千	-9786
五尺	-9787
交代	-9788
亦不	-9789
亦复	-9790
亦是	-9791
亦非	-9792
亲人	-9793
亲见	-9794
人亡	-9795
人命	-9796
人才	-9797
人氏	-9798
人肉	-9799
介意	-9800
介末	-9801
他曾	-9802
他竟	-9803
令郎	-9804
以礼	-9805
以赴	-9806
伏地	-9807
伏牛	-9808
伏着	-9809
会到	-9810
传出	-9811
伤药	-9812
伸到	-9813
但我	-9814
余暇	-9815
作哑	-9816
你使	-9817
你吃	-9818
你家	-9819
你得	-9820
你打	-9821
侍婢	-9822
依照	-9823
依百	-9824
便得	-9825
便没	-9826
便逃	-9827
保重	-9828
倚在	-9829
假意	-9830
停住	-9831
停止	-9832
偷心	-9833
偷眼	-9834
光降	-9835
免了	-9836
入侵	-9837
入化	-9838
入密	-9839
全在	-9840
全都	-9841
八名	-9842
六字	-9843
再打	-9844
再练	-9845
再过	-9846
农夫	-9847
冲突	-9848
几年	-9849
出得	-9850
出指	-9851
出身	-9852
出马	-9853
击打	-9854
分毫	-9855
则个	-9856
别动	-9857
剃度	-9858
剑刃	-9859
剑影	-9860
剧斗	-9861
动听	-9862
勤修	-9863
勾结	-9864
化子	-9865
北上	-9866
北斗	-9867
十人	-9868
半截	-9869
半月	-9870
华语	-9871
卓绝	-9872
却全	-9873
却均	-9874
却将	-9875
却给	-9876
原地	-9877
原该	-9878
去世	-9879
去偷	-9880
去瞧	-9881
又自	-9882
反叛	-9883
发泄	-9884
发烧	-9885
发现	-9886
受尽	-9887
受过	-9888
口呆	-9889
口称	-9890
另行	-9891
叩谢	-9892
可与	-9893
可恶	-9894
可有	-9895
可言	-9896
右颊	-9897
叽哩	-9898
名头	-9899
名帖	-9900
后腰	-9901
后退	-9902
吟道	-9903
听人	-9904
听话	-9905
听闻	-9906
听雨	-9907
吸血	-9908
周遭	-9909
命我	-9910
咕噜	-9911
咬去	-9912
唱歌	-9913
啊啊	-9914
啼哭	-9915
喝干	-9916
喝茶	-9917
嘀咕	-9918
嘉宾	-9919
四剑	-9920
圆睁	-9921
在上	-9922
在世	-9923
在其	-9924
在身	-9925
坐定	-9926
坟墓	-9927
垂手	-9928
堪堪	-9929
塞在	-9930
塞外	-9931
复仇	-9932
多月	-9933
大亏	-9934
大军	-9935
大哭	-9936
大宴	-9937
大将	-9938
大盛	-9939
大言	-9940
大风	-9941
天空	-9942
天资	-9943
太大	-9944
头戴	-9945
头的	-9946
奇事	-9947
奉陪	-9948
奏章	-9949
奔逃	-9950
奥妙	-9951
奴仆	-9952
好似	-9953
好在	-9954
好大	-9955
如花	-9956
如虎	-9957
妇女	-9958
姿势	-9959
娇羞	-9960
婉儿	-9961
婚姻	-9962
字的	-9963
存亡	-9964
孙子	-9965
孤儿	-9966
学士	-9967
守律	-9968
安身	-9969
定下	-9970
宛似	-9971
宝刹	-9972
宝鼎	-9973
实有	-9974
宰相	-9975
宽洪	-9976
寒噤	-9977
对掌	-9978
将近	-9979
小丑	-9980
小山	-9981
小贼	-9982
尚远	-9983
尽处	-9984
尽快	-9985
层层	-9986
屋后	-9987
屋角	-9988
屋里	-9989
工匠	-9990
左脚	-9991
已到	-9992
已毕	-9993
市镇	-9994
帛卷	-9995
带路	-9996
干预	-9997
府中	-9998
廉泉	-9999
弄得	-10000
引起	-10001
强劲	-10002
当此	-10003
当面	-10004
往昔	-10005
征战	-10006
得悉	-10007
心急	-10008
心服	-10009
心知	-10010
心针	-10011
忘恩	-10012
念佛	-10013
念着	-10014
忽施	-10015
忽觉	-10016
怎麽	-10017
怒极	-10018
怕死	-10019
思乱	-10020
急欲	-10021
怦然	-10022
怪人	-10023
怪声	-10024
恐吓	-10025
恢复	-10026
恨之	-10027
恨我	-10028
恭请	-10029
惧怕	-10030
惨然	-10031
惨状	-10032
意气	-10033
慈和	-10034
慌乱	-10035
慢了	-10036
成万	-10037
我如	-10038
我帮	-10039
我得	-10040
我把	-10041
我能	-10042
我虽	-10043
我见	-10044
我非	-10045
戴上	-10046
戴了	-10047
所中	-10048
所指	-10049
扁了	-10050
手握	-10051
手舞	-10052
打发	-10053
打滚	-10054
打火	-10055
托着	-10056
扳动	-10057
护法	-10058
护身	-10059
护送	-10060
抱了	-10061
抱在	-10062
拔开	-10063
拔除	-10064
拚个	-10065
拜上	-10066
拜你	-10067
拦住	-10068
拿捏	-10069
按照	-10070
挥拳	-10071
挺身	-10072
挽了	-10073
掉下	-10074
接待	-10075
推去	-10076
推辞	-10077
措手	-10078
提及	-10079
摔跌	-10080
收起	-10081
攻他	-10082
数年	-10083
文弱	-10084
断腿	-10085
新衣	-10086
无地	-10087
无定	-10088
无敌	-10089
既出	-10090
既感	-10091
既非	-10092
早些	-10093
早将	-10094
明亮	-10095
明儿	-10096
昏晕	-10097
是么	-10098
是的	-10099
晃晃	-10100
晚饭	-10101
更快	-10102
替她	-10103
替我	-10104
最初	-10105
有三	-10106
有亏	-10107
有备	-10108
有眼	-10109
来向	-10110
来攻	-10111
极细	-10112
枝叶	-10113
样的	-10114
格开	-10115
桥边	-10116
梵语	-10117
棒法	-10118
椅中	-10119
楼上	-10120
横扫	-10121
欢心	-10122
欣慰	-10123
欲待	-10124
欲绝	-10125
欺人	-10126
欺到	-10127
歇一	-10128
歇歇	-10129
歌诀	-10130
正色	-10131
此去	-10132
歪了	-10133
死的	-10134
残废	-10135
毒掌	-10136
毒计	-10137
水蛭	-10138
水面	-10139
求他	-10140
求生	-10141
汪汪	-10142
没法	-10143
没趣	-10144
注入	-10145
注目	-10146
泪珠	-10147
泰安	-10148
浓眉	-10149
涂地	-10150
淙淙	-10151
清晰	-10152
清朗	-10153
清水	-10154
游走	-10155
溪边	-10156
激斗	-10157
灰影	-10158
灵丹	-10159
灵儿	-10160
灵前	-10161
灵机	-10162
灵药	-10163
点心	-10164
烛台	-10165
烧了	-10166
焚化	-10167
焦躁	-10168
爬到	-10169
爬起	-10170
爷台	-10171
牵涉	-10172
犯上	-10173
狠心	-10174
率同	-10175
王补	-10176
琴棋	-10177
甚么	-10178
甚大	-10179
甚感	-10180
甚难	-10181
用以	-10182
略加	-10183
疗伤	-10184
疾风	-10185
白银	-10186
白骨	-10187
的又	-10188
的毒	-10189
的生	-10190
皮肉	-10191
盐税	-10192
盒子	-10193
目瞪	-10194
直响	-10195
直线	-10196
相争	-10197
相击	-10198
相当	-10199
相扶	-10200
相撞	-10201
相迎	-10202
看过	-10203
瞎子	-10204
矫捷	-10205
石灰	-10206
破嗔	-10207
确然	-10208
碎片	-10209
示弱	-10210
社稷	-10211
神伤	-10212
祸福	-10213
禅仗	-10214
离得	-10215
种花	-10216
积蓄	-10217
稀松	-10218
立定	-10219
端相	-10220
笑话	-10221
笑问	-10222
簌簌	-10223
精细	-10224
索然	-10225
紧了	-10226
红烧	-10227
约定	-10228
练到	-10229
结结	-10230
绝不	-10231
绝世	-10232
绝伦	-10233
缠住	-10234
罗里	-10235
罪业	-10236
羞惭	-10237
羡慕	-10238
群相	-10239
群臣	-10240
翻滚	-10241
老五	-10242
而在	-10243
而无	-10244
而言	-10245
肖像	-10246
胜了	-10247
胡吹	-10248
能将	-10249
臂膀	-10250
自不	-10251
自相	-10252
自负	-10253
舌之	-10254
舒畅	-10255
船中	-10256
船舱	-10257
花了	-10258
花驴	-10259
苦也	-10260
苦于	-10261
茶壶	-10262
落败	-10263
蚂蚁	-10264
蜂钉	-10265
融智	-10266
血海	-10267
血脉	-10268
行来	-10269
装神	-10270
装聋	-10271
要用	-10272
要跟	-10273
见血	-10274
观世	-10275
解得	-10276
记起	-10277
讲论	-10278
试演	-10279
详情	-10280
诵经	-10281
请进	-10282
诸僧	-10283
诸穴	-10284
谢天	-10285
谢恩	-10286
谭氏	-10287
谷口	-10288
财物	-10289
贴子	-10290
贴身	-10291
贵重	-10292
贼婆	-10293
赫赫	-10294
走下	-10295
越听	-10296
越高	-10297
足见	-10298
足足	-10299
足趾	-10300
跟人	-10301
路程	-10302
踢中	-10303
踢倒	-10304
身周	-10305
身遭	-10306
轻举	-10307
轻薄	-10308
辣手	-10309
近身	-10310
还算	-10311
这麽	-10312
远迎	-10313
连夜	-10314
追究	-10315
通过	-10316
逼人	-10317
遍地	-10318
遭逢	-10319
避雨	-10320
邂逅	-10321
那又	-10322
邪派	-10323
郑重	-10324
酿成	-10325
里去	-10326
重元	-10327
铁索	-10328
错的	-10329
长白	-10330
闪过	-10331
闭了	-10332
阴寒	-10333
院子	-10334
难分	-10335
雁门	-10336
霸霸	-10337
青色	-10338
面临	-10339
顺畅	-10340
领悟	-10341
颠颠	-10342
风的	-10343
飘身	-10344
饭吃	-10345
饭店	-10346
饭的	-10347
首级	-10348
香露	-10349
马嘶	-10350
马家	-10351
骑在	-10352
骨碌	-10353
高望	-10354
鬼魂	-10355
鬼魅	-10356
鲤鱼	-10357
麻木	-10358
黑虎	-10359
齐上	-10360
齐名	-10361
齐道	-10362
▁’,	-10363
▁一时	-10364
▁一路	-10365
▁不是	-10366
▁他又	-10367
▁余婆	-10368
▁你再	-10369
▁你若	-10370
▁别说	-10371
▁四名	-10372
▁大宋	-10373
▁夫人	-10374
▁心想	-10375
▁快快	-10376
▁我去	-10377
▁我在	-10378
▁日后	-10379
▁有一	-10380
▁玄痛	-10381
▁老大	-10382
▁那个	-10383
▁那是	-10384
一大块	-10385
一想到	-10386
七八个	-10387
三四十	-10388
上门来	-10389
下来的	-10390
下马背	-10391
不是他	-10392
不理睬	-10393
不知其	-10394
不自胜	-10395
不过的	-10396
两人的	-10397
两人都	-10398
两只脚	-10399
为之一	-10400
为了我	-10401
之夭夭	-10402
也决计	-10403
也只好	-10404
也无法	-10405
也有些	-10406
了一场	-10407
了一柄	-10408
了我一	-10409
人家的	-10410
什么也	-10411
从头至	-10412
他不过	-10413
他内力	-10414
他出来	-10415
他居然	-10416
他肩头	-10417
他适才	-10418
件物事	-10419
众官兵	-10420
众百姓	-10421
众高手	-10422
伸手按	-10423
但想到	-10424
余下的	-10425
你们的	-10426
你只须	-10427
你死我	-10428
你要杀	-10429
你这个	-10430
你这臭	-10431
依百顺	-10432
做不成	-10433
做哥哥	-10434
做好事	-10435
具尸体	-10436
内力的	-10437
再也没	-10438
几声响	-10439
刹那间	-10440
十八九	-10441
千刀万	-10442
卓先生	-10443
却并不	-10444
又有一	-10445
发见了	-10446
取出来	-10447
只剩下	-10448
只得道	-10449
只震得	-10450
叫一声	-10451
叫咱们	-10452
各有各	-10453
向前一	-10454
向声音	-10455
向敌人	-10456
向阿朱	-10457
听到他	-10458
听雨居	-10459
告辞了	-10460
呼呼呼	-10461
和乔峰	-10462
和钟灵	-10463
喜欢你	-10464
喝一声	-10465
回家去	-10466
在一块	-10467
在何处	-10468
在无锡	-10469
在此间	-10470
在门外	-10471
坏女人	-10472
声音中	-10473
大草原	-10474
大都是	-10475
大雪山	-10476
契丹狗	-10477
她的话	-10478
好一阵	-10479
好大的	-10480
妖魔鬼	-10481
安慰道	-10482
客气了	-10483
宽袍客	-10484
对虚竹	-10485
将师父	-10486
将我们	-10487
小孩子	-10488
小白脸	-10489
小茗道	-10490
小贱人	-10491
少了一	-10492
居高临	-10493
带我去	-10494
弯弯曲	-10495
当我是	-10496
怕什么	-10497
总不会	-10498
总是不	-10499
总是要	-10500
悄没声	-10501
想到了	-10502
慢慢再	-10503
我一生	-10504
我大宋	-10505
我姊姊	-10506
我没有	-10507
我若不	-10508
我问你	-10509
所以要	-10510
所未闻	-10511
才知道	-10512
打什么	-10513
扣住了	-10514
拿住了	-10515
料想他	-10516
无声无	-10517
无相劫	-10518
是否能	-10519
更是一	-10520
最好是	-10521
最要紧	-10522
有一条	-10523
有两个	-10524
本因等	-10525
杀人的	-10526
来找我	-10527
正色道	-10528
此人的	-10529
步田地	-10530
死不可	-10531
段誉一	-10532
段誉又	-10533
汉武帝	-10534
汪剑通	-10535
泻而出	-10536
父亲的	-10537
猛地里	-10538
猝不及	-10539
登时将	-10540
的一招	-10541
的一笑	-10542
的人影	-10543
的余地	-10544
的大石	-10545
的孩子	-10546
的手下	-10547
的方位	-10548
的日子	-10549
的男人	-10550
的眼光	-10551
的神功	-10552
的笑容	-10553
的老僧	-10554
的脸庞	-10555
的轻功	-10556
的长剑	-10557
相互间	-10558
看来这	-10559
看清楚	-10560
眼睁睁	-10561
眼见到	-10562
着了火	-10563
着自己	-10564
着身子	-10565
睡着了	-10566
瞧瞧我	-10567
砰的一	-10568
砰砰砰	-10569
祖师爷	-10570
童姥姥	-10571
笑声中	-10572
第一层	-10573
第三个	-10574
等人的	-10575
答允了	-10576
舍不得	-10577
若无事	-10578
英雄宴	-10579
英雄帖	-10580
范司马	-10581
虽说是	-10582
要不然	-10583
要不要	-10584
要自己	-10585
见乔峰	-10586
见到你	-10587
见到我	-10588
解不开	-10589
认不出	-10590
证道院	-10591
语气中	-10592
说一句	-10593
说几句	-10594
说得出	-10595
说着便	-10596
说着将	-10597
说错了	-10598
诸长老	-10599
谁要你	-10600
走过去	-10601
起来了	-10602
越看越	-10603
跟着你	-10604
身穿淡	-10605
过不去	-10606
还道他	-10607
这么多	-10608
这人是	-10609
这孩子	-10610
这时却	-10611
这时已	-10612
这老僧	-10613
这般的	-10614
远远传	-10615
连自己	-10616
逃不了	-10617
那些人	-10618
那大夫	-10619
那是不	-10620
那正是	-10621
那貂儿	-10622
金刚指	-10623
钧一发	-10624
阮姑娘	-10625
陪笑道	-10626
雀无声	-10627
青石板	-10628
青蜂钉	-10629
马蹄声	-10630
骨溜溜	-10631
高侯爷	-10632
▁却听得	-10633
▁只听那	-10634
▁只见她	-10635
▁可是我	-10636
▁大伙儿	-10637
▁平婆婆	-10638
▁忽然间	-10639
▁无量剑	-10640
▁本因道	-10641
▁穆贵妃	-10642
▁赵煦道	-10643
▁这一掌	-10644
▁这两人	-10645
▁那渔人	-10646
▁那老者	-10647
▁那酒保	-10648
一出手便	-10649
一心一意	-10650
一股劲风	-10651
一走了之	-10652
七宝指环	-10653
万劫谷中	-10654
上前动手	-10655
不共戴天	-10656
不可思议	-10657
不平道长	-10658
不由自主	-10659
不知段誉	-10660
不知道了	-10661
不自量力	-10662
不论如何	-10663
与众不同	-10664
两人同时	-10665
中了他的	-10666
中原武人	-10667
中年美妇	-10668
为什么不	-10669
为非作歹	-10670
也不见得	-10671
了口长气	-10672
事到临头	-10673
二十余里	-10674
什么时候	-10675
从怀中摸	-10676
传音入密	-10677
伸出手去	-10678
伸手便去	-10679
何足道哉	-10680
你们这些	-10681
你死我活	-10682
倒也不是	-10683
停了脚步	-10684
僻处南疆	-10685
内力修为	-10686
凶神恶煞	-10687
出神入化	-10688
判官笔的	-10689
剑湖宫中	-10690
包不同的	-10691
北院大王	-10692
十分欢喜	-10693
千依百顺	-10694
又是一惊	-10695
又是好笑	-10696
右手食指	-10697
叽哩咕噜	-10698
向萧峰道	-10699
吓得呆了	-10700
吸一口气	-10701
呆了半晌	-10702
呼呼风响	-10703
咱们这就	-10704
四个女子	-10705
在他脸上	-10706
在她身上	-10707
多半便是	-10708
大开眼界	-10709
大恩大德	-10710
大惊之下	-10711
大祸临头	-10712
契丹文字	-10713
契丹老汉	-10714
好生感激	-10715
妖魔鬼怪	-10716
威震天下	-10717
安然无恙	-10718
宋奚陈吴	-10719
实在太过	-10720
小心在意	-10721
尚未回答	-10722
尸横就地	-10723
展开轻功	-10724
岂不是好	-10725
左手一挥	-10726
巴天石等	-10727
平南公主	-10728
并肩而行	-10729
弯弯曲曲	-10730
当下也不	-10731
往地下一	-10732
心下害怕	-10733
心想自己	-10734
心满意足	-10735
忠心耿耿	-10736
念念不忘	-10737
成千成万	-10738
我的性命	-10739
我的眼睛	-10740
抵受不住	-10741
抵挡不住	-10742
拔出长剑	-10743
拜你为师	-10744
摔倒在地	-10745
数丈之外	-10746
无能为力	-10747
是你自己	-10748
是真是假	-10749
更是奇怪	-10750
本派掌门	-10751
李秋水道	-10752
束手待毙	-10753
束手无策	-10754
武功低微	-10755
武林之中	-10756
武林同道	-10757
没了主意	-10758
满脸皱纹	-10759
灵机一动	-10760
王补心针	-10761
理所当然	-10762
甚是了得	-10763
疯疯颠颠	-10764
的一阳指	-10765
的是什么	-10766
的老太婆	-10767
皱起眉头	-10768
目瞪口呆	-10769
石屋之中	-10770
破涕为笑	-10771
礼部尚书	-10772
神通广大	-10773
神魂颠倒	-10774
立时便要	-10775
缓缓摇头	-10776
缓缓说道	-10777
聚在一起	-10778
胸口一酸	-10779
葬身之地	-10780
藏经阁中	-10781
虚竹应道	-10782
装神弄鬼	-10783
装聋作哑	-10784
见木婉清	-10785
视而不见	-10786
言念及此	-10787
言语无礼	-10788
话跟你说	-10789
该当如何	-10790
说一句话	-10791
走了几步	-10792
跟你说了	-10793
跟我说话	-10794
跨出一步	-10795
身不由主	-10796
身子一颤	-10797
躲在这里	-10798
轻举妄动	-10799
轻轻一笑	-10800
这小和尚	-10801
那就好了	-10802
那怎么办	-10803
那老僧道	-10804
那铁头人	-10805
金刚指力	-10806
钟万仇的	-10807
门下弟子	-10808
闭上眼睛	-10809
阿朱姑娘	-10810
阿碧姑娘	-10811
隐隐觉得	-10812
风流浪子	-10813
首脑人物	-10814
魂不附体	-10815
黄衫女子	-10816
黑虎偷心	-10817
▁众人一听	-10818
▁带头大哥	-10819
▁延庆太子	-10820
▁总而言之	-10821
▁我跟你说	-10822
▁方丈师兄	-10823
▁段延庆道	-10824
▁段誉听她	-10825
▁段誉大喜	-10826
▁萧峰寻思	-10827
▁萧峰心下	-10828
▁萧峰见他	-10829
▁虚竹心想	-10830
▁这几句话	-10831
▁青袍客道	-10832
▁风波恶道	-10833
三笑逍遥散	-10834
不由得心中	-10835
到雁门关外	-10836
向南海鳄神	-10837
在一株大树	-10838
在雁门关外	-10839
大理国皇帝	-10840
奈何他不得	-10841
慕容公子和	-10842
手忙脚乱的	-10843
段誉啊段誉	-10844
的英雄好汉	-10845
观世音菩萨	-10846
达摩院首座	-10847
这位段公子	-10848
这就是你的	-10849
鬼鬼祟祟的	-10850
▁他说到这里	-10851
一个女子声音	-10852
七十二项绝技	-10853
嗤的一声轻响	-10854
少林寺的和尚	-10855
武功天下第一	-10856
逍遥派掌门人	-10857
不到一盏茶时分	-10858
又有什么了不起	-10859
江湖上第一大帮	-10860
(‘	-10861
”?	-10862
▁《	-10863
▁便	-10864
▁咱	-10865
▁薛	-10866
▁酒	-10867
》。	-10868
一丝	-10869
一古	-10870
一掷	-10871
一旁	-10872
一段	-10873
一穿	-10874
一竖	-10875
一观	-10876
一角	-10877
一触	-10878
万人	-10879
万念	-10880
三回	-10881
三宝	-10882
三路	-10883
上两	-10884
上拍	-10885
上树	-10886
上气	-10887
下颏	-10888
不仁	-10889
不净	-10890
不周	-10891
不忠	-10892
不求	-10893
不端	-10894
不经	-10895
不美	-10896
不肖	-10897
不至	-10898
不让	-10899
不重	-10900
世家	-10901
世所	-10902
东张	-10903
丝丝	-10904
两响	-10905
两行	-10906
两败	-10907
中望	-10908
中箭	-10909
为友	-10910
为喜	-10911
为妻	-10912
为己	-10913
为首	-10914
举刀	-10915
之境	-10916
之宝	-10917
之尊	-10918
之德	-10919
之快	-10920
之有	-10921
之深	-10922
之祸	-10923
之福	-10924
之辱	-10925
乐趣	-10926
也太	-10927
也颇	-10928
书写	-10929
了五	-10930
了搔	-10931
事么	-10932
于她	-10933
云州	-10934
人在	-10935
人情	-10936
人身	-10937
仍在	-10938
从人	-10939
从何	-10940
从后	-10941
从无	-10942
他不	-10943
他人	-10944
他从	-10945
他道	-10946
任你	-10947
会见	-10948
伤得	-10949
伤痛	-10950
伤者	-10951
伯伯	-10952
伺候	-10953
但你	-10954
但那	-10955
何敢	-10956
何方	-10957
何来	-10958
佛教	-10959
佛祖	-10960
作对	-10961
作甚	-10962
你会	-10963
你能	-10964
侍卫	-10965
便与	-10966
便非	-10967
俊美	-10968
俏药	-10969
俱伤	-10970
倒霉	-10971
倚多	-10972
假手	-10973
偏又	-10974
做官	-10975
做起	-10976
停留	-10977
催马	-10978
僵持	-10979
儿啊	-10980
元帅	-10981
光彩	-10982
光滑	-10983
光雄	-10984
兢兢	-10985
入睡	-10986
入鞘	-10987
全寺	-10988
全祥	-10989
八两	-10990
八仙	-10991
八十	-10992
六僧	-10993
共死	-10994
关我	-10995
关键	-10996
兴味	-10997
养伤	-10998
养神	-10999
养育	-11000
再提	-11001
再杀	-11002
再见	-11003
写了	-11004
军国	-11005
军情	-11006
冰凉	-11007
冲去	-11008
冲口	-11009
冲向	-11010
冲撞	-11011
冲来	-11012
凄厉	-11013
凄然	-11014
凉州	-11015
减弱	-11016
凝气	-11017
几上	-11018
几十	-11019
凤凰	-11020
凶光	-11021
出城	-11022
出房	-11023
出猎	-11024
刀尖	-11025
刀锋	-11026
分向	-11027
分说	-11028
别无	-11029
别让	-11030
到手	-11031
刻骨	-11032
削去	-11033
前生	-11034
剑光	-11035
剽悍	-11036
劈去	-11037
办事	-11038
助你	-11039
助威	-11040
勃勃	-11041
化装	-11042
匙羹	-11043
十成	-11044
十招	-11045
午时	-11046
半步	-11047
南无	-11048
南蛮	-11049
却能	-11050
压压	-11051
厚颜	-11052
去取	-11053
去后	-11054
去杀	-11055
去的	-11056
又使	-11057
又到	-11058
又生	-11059
又被	-11060
又过	-11061
双树	-11062
反悔	-11063
发挥	-11064
发话	-11065
发难	-11066
受制	-11067
变为	-11068
叛乱	-11069
叛逆	-11070
古人	-11071
句句	-11072
只小	-11073
只管	-11074
叮叮	-11075
可寻	-11076
可怕	-11077
可比	-11078
可还	-11079
右腕	-11080
叶子	-11081
吃亏	-11082
吃痛	-11083
各执	-11084
名家	-11085
后发	-11086
后果	-11087
向里	-11088
听你	-11089
呆子	-11090
呆立	-11091
呈上	-11092
呜咽	-11093
呼声	-11094
和这	-11095
咒骂	-11096
咬着	-11097
哩布	-11098
喉咙	-11099
喜乐	-11100
喝水	-11101
嘈杂	-11102
回寺	-11103
回手	-11104
回旋	-11105
困境	-11106
围棋	-11107
土色	-11108
地堂	-11109
坐起	-11110
垂下	-11111
基业	-11112
基本	-11113
塔塔	-11114
墙外	-11115
墙角	-11116
声震	-11117
复明	-11118
多么	-11119
多人	-11120
多活	-11121
多礼	-11122
多罗	-11123
多识	-11124
夜想	-11125
大受	-11126
大头	-11127
大帐	-11128
大放	-11129
大步	-11130
大片	-11131
大跳	-11132
大违	-11133
大道	-11134
大铁	-11135
天南	-11136
太湖	-11137
头下	-11138
头道	-11139
夹击	-11140
夹杂	-11141
奇哉	-11142
奇异	-11143
奇快	-11144
奇速	-11145
奋勇	-11146
奔向	-11147
奔得	-11148
奔波	-11149
套在	-11150
套问	-11151
奸谋	-11152
她在	-11153
好不	-11154
好臭	-11155
好险	-11156
如能	-11157
如血	-11158
妄想	-11159
威势	-11160
娇媚	-11161
娇怯	-11162
学那	-11163
孩童	-11164
宁定	-11165
宁死	-11166
完颜	-11167
宝物	-11168
实无	-11169
宰了	-11170
家传	-11171
容颜	-11172
寒冰	-11173
对岸	-11174
对联	-11175
对饮	-11176
封喉	-11177
射中	-11178
射到	-11179
射向	-11180
尊府	-11181
小命	-11182
小怪	-11183
小的	-11184
小蛇	-11185
就像	-11186
尸骨	-11187
尽量	-11188
尾鞭	-11189
屏息	-11190
山后	-11191
山腰	-11192
山边	-11193
山里	-11194
左胁	-11195
己方	-11196
已成	-11197
师长	-11198
帐外	-11199
带子	-11200
帮我	-11201
干粮	-11202
平日	-11203
幸会	-11204
床底	-11205
店家	-11206
开门	-11207
弓搭	-11208
引路	-11209
弥漫	-11210
弹出	-11211
当以	-11212
当头	-11213
形势	-11214
彷徨	-11215
待她	-11216
待见	-11217
得失	-11218
得手	-11219
微感	-11220
德帝	-11221
心力	-11222
心肝	-11223
忙将	-11224
忠厚	-11225
忧心	-11226
快拿	-11227
怒色	-11228
怨毒	-11229
怪我	-11230
怪责	-11231
总有	-11232
恨恨	-11233
恨极	-11234
恭祝	-11235
恶意	-11236
恶气	-11237
恻恻	-11238
悚然	-11239
悬在	-11240
悲痛	-11241
情长	-11242
惊醒	-11243
惠山	-11244
想个	-11245
想将	-11246
想法	-11247
惹恼	-11248
我命	-11249
我将	-11250
我所	-11251
我本	-11252
我道	-11253
戟指	-11254
房舍	-11255
房里	-11256
所云	-11257
扇子	-11258
手按	-11259
才将	-11260
才成	-11261
扑出	-11262
扑向	-11263
打中	-11264
打人	-11265
打仗	-11266
扣住	-11267
扰攘	-11268
把这	-11269
投罗	-11270
抚养	-11271
抢夺	-11272
报国	-11273
拔足	-11274
拜倒	-11275
拳力	-11276
拳经	-11277
指示	-11278
挟着	-11279
挨打	-11280
挫折	-11281
挺挺	-11282
排名	-11283
排在	-11284
排行	-11285
探出	-11286
掩面	-11287
掳掠	-11288
掷来	-11289
提了	-11290
携带	-11291
摇幌	-11292
摔得	-11293
撑持	-11294
撞去	-11295
撞破	-11296
擅自	-11297
攀援	-11298
攻去	-11299
放眼	-11300
放过	-11301
敌一	-11302
敌忾	-11303
敌意	-11304
救火	-11305
数一	-11306
整整	-11307
整日	-11308
整治	-11309
斑斓	-11310
斗剑	-11311
料得	-11312
斩断	-11313
无二	-11314
无关	-11315
无冤	-11316
无多	-11317
无损	-11318
无故	-11319
日月	-11320
早在	-11321
昨天	-11322
是丑	-11323
是福	-11324
显现	-11325
晃动	-11326
晕眩	-11327
暂时	-11328
暗想	-11329
暗运	-11330
暗道	-11331
曾说	-11332
未得	-11333
未见	-11334
本尘	-11335
本舵	-11336
本身	-11337
机警	-11338
杀妻	-11339
杀尽	-11340
杀敌	-11341
杂学	-11342
杏林	-11343
来人	-11344
来取	-11345
来岁	-11346
来说	-11347
来过	-11348
极具	-11349
架子	-11350
柔腻	-11351
栏杆	-11352
桥上	-11353
楼下	-11354
欢迎	-11355
款款	-11356
歇宿	-11357
止渊	-11358
正式	-11359
正欲	-11360
正道	-11361
此次	-11362
此经	-11363
死心	-11364
殷勤	-11365
殿来	-11366
毒的	-11367
毒誓	-11368
毒酒	-11369
气也	-11370
气了	-11371
气往	-11372
气血	-11373
水线	-11374
水落	-11375
水阁	-11376
污言	-11377
汤蹈	-11378
沉着	-11379
没出	-11380
法旨	-11381
活着	-11382
浅薄	-11383
深信	-11384
深夜	-11385
淳弟	-11386
清雅	-11387
渊深	-11388
湖水	-11389
满怀	-11390
满手	-11391
满腹	-11392
火来	-11393
灰尘	-11394
灿烂	-11395
炯炯	-11396
点地	-11397
烂熟	-11398
烟花	-11399
焉知	-11400
熊胆	-11401
爬出	-11402
爷爷	-11403
爽爽	-11404
牧牛	-11405
狡狯	-11406
狭窄	-11407
玄净	-11408
玄灭	-11409
玄虚	-11410
王安	-11411
玩弄	-11412
珍贵	-11413
珠宝	-11414
珠崖	-11415
用过	-11416
由你	-11417
留着	-11418
略有	-11419
疲力	-11420
疾行	-11421
痛哭	-11422
痛恨	-11423
瘦削	-11424
瘦长	-11425
白影	-11426
白气	-11427
白色	-11428
白马	-11429
百了	-11430
百官	-11431
的将	-11432
的旧	-11433
的眼	-11434
的美	-11435
的花	-11436
的苦	-11437
的重	-11438
皆知	-11439
皇兄	-11440
皮肤	-11441
盖世	-11442
盗经	-11443
盗贼	-11444
盘问	-11445
直上	-11446
直立	-11447
相候	-11448
相授	-11449
相求	-11450
相碰	-11451
相让	-11452
看她	-11453
瞧这	-11454
瞪眼	-11455
瞬息	-11456
石屑	-11457
破门	-11458
碗面	-11459
碧磷	-11460
礼敬	-11461
神采	-11462
祸胎	-11463
禅定	-11464
离家	-11465
秀美	-11466
私心	-11467
称颂	-11468
稳稳	-11469
窗纸	-11470
立下	-11471
竟能	-11472
竹篙	-11473
笑得	-11474
笨拙	-11475
第六	-11476
篡位	-11477
粗豪	-11478
精光	-11479
精微	-11480
精灵	-11481
精致	-11482
紧迫	-11483
紫衫	-11484
红菱	-11485
线索	-11486
练了	-11487
细声	-11488
绕着	-11489
绘的	-11490
绝艺	-11491
缩头	-11492
罪该	-11493
羊肉	-11494
羞得	-11495
翻了	-11496
翻涌	-11497
翻脸	-11498
老了	-11499
老头	-11500
老妇	-11501
老祖	-11502
而动	-11503
而成	-11504
而止	-11505
而走	-11506
而逃	-11507
耳畔	-11508
聚在	-11509
肃然	-11510
肚里	-11511
胁迫	-11512
胜负	-11513
胯下	-11514
能否	-11515
脑的	-11516
脑胀	-11517
脸皮	-11518
腐骨	-11519
腻腻	-11520
膝盖	-11521
自怨	-11522
致命	-11523
花朵	-11524
花样	-11525
若在	-11526
若得	-11527
荣辱	-11528
荷叶	-11529
荼毒	-11530
莽撞	-11531
菱叶	-11532
落落	-11533
蓄势	-11534
藏香	-11535
虎穴	-11536
虫豸	-11537
虽大	-11538
蛇儿	-11539
蜿蜒	-11540
血腥	-11541
衣裳	-11542
表示	-11543
袖底	-11544
被擒	-11545
被服	-11546
装腔	-11547
西去	-11548
西望	-11549
要问	-11550
见人	-11551
观赏	-11552
觉到	-11553
解了	-11554
解穴	-11555
解释	-11556
触手	-11557
识见	-11558
诛灭	-11559
语调	-11560
误认	-11561
说有	-11562
说谎	-11563
调动	-11564
谢地	-11565
谦和	-11566
负了	-11567
贪图	-11568
贫道	-11569
走啦	-11570
走路	-11571
赴宴	-11572
足下	-11573
跌倒	-11574
跟著	-11575
跳跃	-11576
踏入	-11577
踢开	-11578
身分	-11579
车夫	-11580
转为	-11581
转告	-11582
边缘	-11583
过份	-11584
过我	-11585
迎上	-11586
运行	-11587
还说	-11588
这儿	-11589
这根	-11590
这群	-11591
这臭	-11592
这道	-11593
进得	-11594
远胜	-11595
违犯	-11596
连叫	-11597
连杀	-11598
迷药	-11599
退下	-11600
退去	-11601
退缩	-11602
送客	-11603
逃出	-11604
逃到	-11605
通治	-11606
道士	-11607
遗体	-11608
那才	-11609
那株	-11610
都不	-11611
酒楼	-11612
醒觉	-11613
里地	-11614
钟情	-11615
长得	-11616
门徒	-11617
门穴	-11618
闪开	-11619
问明	-11620
问话	-11621
问问	-11622
闺女	-11623
闻其	-11624
阳刚	-11625
阴沉	-11626
阴险	-11627
除此	-11628
随同	-11629
随我	-11630
隐约	-11631
隐身	-11632
难处	-11633
难的	-11634
难逢	-11635
零零	-11636
青凤	-11637
青菜	-11638
青衣	-11639
非虚	-11640
领路	-11641
题目	-11642
风光	-11643
风度	-11644
飞到	-11645
饭碗	-11646
饿狼	-11647
馒头	-11648
马脚	-11649
骄傲	-11650
骗得	-11651
高出	-11652
魁伟	-11653
鲍兄	-11654
麻核	-11655
黄昏	-11656
黑影	-11657
默默	-11658
鼎上	-11659
鼎鼎	-11660
齐叫	-11661
▁一人	-11662
▁两个	-11663
▁众女	-11664
▁但若	-11665
▁其后	-11666
▁刚才	-11667
▁前辈	-11668
▁反正	-11669
▁只因	-11670
▁在这	-11671
▁坐在	-11672
▁小妹	-11673
▁当即	-11674
▁当晚	-11675
▁心下	-11676
▁快说	-11677
▁既然	-11678
▁枯荣	-11679
▁没有	-11680
▁游驹	-11681
▁自己	-11682
▁行出	-11683
▁观心	-11684
▁请问	-11685
▁这两	-11686
▁那使	-11687
一上来	-11688
一声叫	-11689
一抬头	-11690
一掌击	-11691
一无所	-11692
一着地	-11693
七八名	-11694
万念俱	-11695
三人的	-11696
三人都	-11697
上一架	-11698
下的手	-11699
不多久	-11700
不对了	-11701
不成的	-11702
不打紧	-11703
不敢忘	-11704
不是的	-11705
不知已	-11706
不让他	-11707
与萧峰	-11708
个不停	-11709
个个是	-11710
个圈子	-11711
个时辰	-11712
个究竟	-11713
之一的	-11714
乒乒乓	-11715
也不如	-11716
也决不	-11717
也有一	-11718
也来了	-11719
了一招	-11720
了两声	-11721
了咱们	-11722
了这个	-11723
二十年	-11724
交好友	-11725
从腰间	-11726
他便是	-11727
他手指	-11728
他知道	-11729
他这般	-11730
件大事	-11731
伤人命	-11732
但只要	-11733
但自己	-11734
但虚竹	-11735
但见到	-11736
低下了	-11737
低头道	-11738
你一定	-11739
你不可	-11740
你再不	-11741
你刚才	-11742
你可别	-11743
你如何	-11744
你就是	-11745
你徒儿	-11746
你快快	-11747
你放心	-11748
你本来	-11749
使一招	-11750
便到了	-11751
便是你	-11752
倘若她	-11753
做得到	-11754
内书房	-11755
再见了	-11756
冷冰冰	-11757
出一条	-11758
刷刷刷	-11759
办不到	-11760
加理会	-11761
十七岁	-11762
十五六	-11763
半夜里	-11764
南海派	-11765
却兀自	-11766
却半点	-11767
却又是	-11768
却未必	-11769
却着实	-11770
去理会	-11771
又不能	-11772
又如何	-11773
又见他	-11774
另有一	-11775
只听他	-11776
只是要	-11777
只觉她	-11778
只道是	-11779
叫了声	-11780
可是你	-11781
可说是	-11782
各种各	-11783
向山下	-11784
向旁人	-11785
向西北	-11786
向这边	-11787
向钟灵	-11788
听阿紫	-11789
呼的一	-11790
和师父	-11791
唐光雄	-11792
唠叨叨	-11793
喝了一	-11794
喝了几	-11795
国之主	-11796
在一张	-11797
在他的	-11798
在头里	-11799
在对方	-11800
在师父	-11801
在童姥	-11802
在辽国	-11803
垂头丧	-11804
垂泪道	-11805
声问道	-11806
声音也	-11807
多谢了	-11808
头上的	-11809
她体内	-11810
孔夫子	-11811
守律僧	-11812
对萧峰	-11813
对阿紫	-11814
射死了	-11815
小兄弟	-11816
居然也	-11817
居然能	-11818
屋之前	-11819
山坡上	-11820
山谷中	-11821
已是不	-11822
已被他	-11823
巴巴的	-11824
年之前	-11825
年纪较	-11826
幸好他	-11827
弓搭箭	-11828
弟子的	-11829
张全祥	-11830
当作了	-11831
得很啊	-11832
德高望	-11833
心下稍	-11834
心想这	-11835
怎么能	-11836
怎样了	-11837
思乱想	-11838
性大发	-11839
悄悄地	-11840
意思说	-11841
愤的道	-11842
慕容兄	-11843
成不成	-11844
我一个	-11845
我一起	-11846
我不许	-11847
我乔峰	-11848
我什么	-11849
我们是	-11850
我兄弟	-11851
我喜欢	-11852
我性命	-11853
我总是	-11854
我正要	-11855
我的事	-11856
手上的	-11857
投罗网	-11858
抱着她	-11859
拉着他	-11860
掉入了	-11861
掌心中	-11862
插入了	-11863
搔了搔	-11864
放下了	-11865
放了我	-11866
敌不过	-11867
数十里	-11868
料到他	-11869
斟了一	-11870
无处可	-11871
时刻刻	-11872
昆仑山	-11873
是一条	-11874
是一种	-11875
是个大	-11876
普天下	-11877
有一件	-11878
有一道	-11879
有剧毒	-11880
条大汉	-11881
来杀我	-11882
来福儿	-11883
松树上	-11884
歇一歇	-11885
段兄弟	-11886
段王子	-11887
段誉却	-11888
段郎的	-11889
每一个	-11890
每一步	-11891
水落石	-11892
汤蹈火	-11893
没丝毫	-11894
没半分	-11895
没有死	-11896
没说完	-11897
满了人	-11898
烧成了	-11899
狗杂种	-11900
狠狠的	-11901
玄难等	-11902
玉壁上	-11903
王府中	-11904
画中人	-11905
留下了	-11906
的一座	-11907
的一番	-11908
的兄弟	-11909
的大名	-11910
的大错	-11911
的时刻	-11912
的暗器	-11913
的正是	-11914
的种种	-11915
的肌肤	-11916
的脸蛋	-11917
的说话	-11918
的说道	-11919
的遗体	-11920
的香气	-11921
直挺挺	-11922
看不到	-11923
真面目	-11924
着一张	-11925
知道你	-11926
矮胖子	-11927
石屋中	-11928
石灰包	-11929
神道穴	-11930
种手法	-11931
种茶花	-11932
穴道中	-11933
第三次	-11934
第二掌	-11935
纵身上	-11936
细细的	-11937
结成了	-11938
给我们	-11939
罗汉拳	-11940
老太婆	-11941
而易举	-11942
而甘心	-11943
背心上	-11944
腐骨丸	-11945
腰间的	-11946
自是不	-11947
自然会	-11948
自称是	-11949
至阳穴	-11950
英雄贴	-11951
藏经楼	-11952
要他们	-11953
语音中	-11954
说着向	-11955
谭婆道	-11956
还是别	-11957
这一刀	-11958
这一手	-11959
这一步	-11960
这两位	-11961
这么好	-11962
这汉子	-11963
这里有	-11964
进屋来	-11965
道人的	-11966
那两人	-11967
那么我	-11968
那也好	-11969
那书生	-11970
那妇人	-11971
那才是	-11972
那道姑	-11973
金锁片	-11974
钱银子	-11975
铁面具	-11976
锭银子	-11977
阴恻恻	-11978
阴阳怪	-11979
随即又	-11980
隐隐生	-11981
难道还	-11982
青石上	-11983
非礼勿	-11984
须得先	-11985
饶了你	-11986
香露刀	-11987
驯狮人	-11988
鳄尾鞭	-11989
黑压压	-11990
黑夜中	-11991
黯然道	-11992
▁也不知	-11993
▁他此刻	-11994
▁众官兵	-11995
▁只是他	-11996
▁只见他	-11997
▁可是她	-11998
▁小和尚	-11999
▁少林派	-12000
▁李傀儡	-12001
▁武林中	-12002
▁段誉将	-12003
▁狮鼻人	-12004
▁甘宝宝	-12005
▁范百龄	-12006
▁萧峰听	-12007
▁虚竹子	-12008
▁这不是	-12009
▁这时他	-12010
▁那戏子	-12011
▁那老人	-12012
▁都灵子	-12013
一一说了	-12014
一个个都	-12015
一个人影	-12016
一个男子	-12017
一个踉跄	-12018
一了百了	-12019
一双眼睛	-12020
一呆之下	-12021
一往情深	-12022
一把抓住	-12023
一掌拍出	-12024
一条大汉	-12025
一点也不	-12026
一笔勾销	-12027
一臂之力	-12028
一般见识	-12029
一跃而起	-12030
一阵剧痛	-12031
一阵难过	-12032
万毒之王	-12033
上气不接	-12034
上缥缈峰	-12035
不以为然	-12036
不可同日	-12037
不得无礼	-12038
不是好人	-12039
不是我的	-12040
不胜之喜	-12041
丐帮中人	-12042
丐帮群豪	-12043
东张西望	-12044
两位姊姊	-12045
两败俱伤	-12046
个个都是	-12047
中的一招	-12048
为难之事	-12049
乒乒乓乓	-12050
九十六岁	-12051
二十余名	-12052
亲生女儿	-12053
人事不知	-12054
今日得见	-12055
从头至尾	-12056
他的武功	-12057
传下号令	-12058
伤他性命	-12059
你又何必	-12060
使个眼色	-12061
使将出来	-12062
侧过了头	-12063
侧过头来	-12064
倘若有人	-12065
假惺惺的	-12066
公冶乾道	-12067
公冶二哥	-12068
再好不过	-12069
决计不是	-12070
凶险无比	-12071
出尘子道	-12072
到得后来	-12073
前后左右	-12074
千钧一发	-12075
去干什么	-12076
又是愤怒	-12077
双掌齐出	-12078
反手一掌	-12079
古怪之极	-12080
只觉全身	-12081
向段正淳	-12082
向西北方	-12083
听在耳里	-12084
和乌老大	-12085
和游坦之	-12086
咬了一口	-12087
哇的一声	-12088
哼的一声	-12089
喀的一声	-12090
回头一看	-12091
在他手中	-12092
在半空中	-12093
在缥缈峰	-12094
大仁大义	-12095
大惑不解	-12096
大理段二	-12097
天龙寺外	-12098
好得很啊	-12099
宁死不屈	-12100
宽洪大量	-12101
寂静无声	-12102
对自己的	-12103
少林武功	-12104
少说也有	-12105
居高临下	-12106
左手食指	-12107
已抓住了	-12108
年轻姑娘	-12109
弯弓搭箭	-12110
当即说道	-12111
影踪不见	-12112
徐长老道	-12113
得不得了	-12114
微一沉吟	-12115
心下暗惊	-12116
心中害怕	-12117
怦然心动	-12118
惊得呆了	-12119
想到这里	-12120
慕容博道	-12121
慕容复等	-12122
懂得什么	-12123
我有什么	-12124
战战兢兢	-12125
所到之处	-12126
抱着阿朱	-12127
抵敌不住	-12128
拜了下去	-12129
摔在地下	-12130
无冤无仇	-12131
无力还手	-12132
无声无息	-12133
无形剑气	-12134
无相劫指	-12135
旦夕之间	-12136
早知如此	-12137
时时刻刻	-12138
是何用意	-12139
更无怀疑	-12140
有何用意	-12141
木婉清的	-12142
朱丹臣等	-12143
朱碧二女	-12144
朴者和尚	-12145
李延宗道	-12146
来到一座	-12147
极厉害的	-12148
武功厉害	-12149
武学典籍	-12150
段誉奇道	-12151
段誉的手	-12152
气往上冲	-12153
江湖规矩	-12154
活不成了	-12155
浓眉大眼	-12156
淡淡一笑	-12157
清规戒律	-12158
燕云十八	-12159
爽爽快快	-12160
片刻之前	-12161
猝不及防	-12162
玄慈大师	-12163
琴棋书画	-12164
甚是有理	-12165
的掌门人	-12166
瞧我不起	-12167
砰的一下	-12168
稀松平常	-12169
突然见到	-12170
精神大振	-12171
糟糕之极	-12172
纵身而起	-12173
罪该万死	-12174
置之不理	-12175
翻身下马	-12176
聪明才智	-12177
胡思乱想	-12178
脸上一阵	-12179
脸如土色	-12180
自作自受	-12181
自己胸口	-12182
芙蓉仙子	-12183
若有若无	-12184
萧氏父子	-12185
萧老施主	-12186
薛慕华道	-12187
虚竹一怔	-12188
被鸠摩智	-12189
装腔作势	-12190
西夏皇帝	-12191
言语之中	-12192
认了出来	-12193
话到口边	-12194
诡计多端	-12195
说不上来	-12196
说不出口	-12197
诸位长老	-12198
谢天谢地	-12199
走上前去	-12200
走了出去	-12201
走出一个	-12202
赴汤蹈火	-12203
越来越响	-12204
越走越快	-12205
跟我说了	-12206
跟着又是	-12207
跟随其后	-12208
躬身说道	-12209
转身便走	-12210
轻而易举	-12211
轻轻的道	-12212
达摩老祖	-12213
还施水阁	-12214
这八个字	-12215
这才明白	-12216
这样一位	-12217
退了一步	-12218
那也不必	-12219
那也不难	-12220
郁光标道	-12221
都是鲜血	-12222
释迦牟尼	-12223
重伤之余	-12224
闻所未闻	-12225
隔了半晌	-12226
静了下来	-12227
高升泰道	-12228
鸦雀无声	-12229
齐声应道	-12230
▁叶二娘道	-12231
▁宗赞王子	-12232
▁我家公子	-12233
▁段誉一怔	-12234
▁段誉听得	-12235
▁段誉见到	-12236
▁玄慈说道	-12237
▁神山上人	-12238
▁赫连铁树	-12239
▁赵钱孙道	-12240
▁阿紫见他	-12241
▁黑暗之中	-12242
伯父和爹爹	-12243
伸了伸舌头	-12244
你胡说八道	-12245
向声音来处	-12246
听他这么说	-12247
在聚贤庄上	-12248
大理段公子	-12249
天山童姥的	-12250
天王补心针	-12251
慕容先生的	-12252
星宿老怪的	-12253
最多也不过	-12254
有什么古怪	-12255
朦朦胧胧的	-12256
目不转睛的	-12257
这个小姑娘	-12258
▁南海鳄神道	-12259
▁只听得一个	-12260
▁星宿派门人	-12261
▁木婉清怒道	-12262
▁本因方丈道	-12263
▁段正淳笑道	-12264
▁段誉摇头道	-12265
▁波罗星师兄	-12266
▁萧峰和阿朱	-12267
▁虚竹和段誉	-12268
▁过了好一会	-12269
▁那少女笑道	-12270
再也动弹不得	-12271
喀喇喇一声响	-12272
在下感激不尽	-12273
在这里干什么	-12274
天下第一恶人	-12275
恭恭敬敬的道	-12276
枯荣大师身前	-12277
这几句话说得	-12278
那是什么缘故	-12279
长长叹了口气	-12280
▁段誉吃了一惊	-12281
▁段誉大吃一惊	-12282
丐帮帮主庄聚贤	-12283
包不同和风波恶	-12284
▁?	-12285
▁也	-12286
▁事	-12287
▁同	-12288
▁就	-12289
▁王	-12290
▁用	-12291
▁臣	-12292
▁金	-12293
一侧	-12294
一停	-12295
一十	-12296
一如	-12297
一宵	-12298
一搭	-12299
一支	-12300
一皱	-12301
一盆	-12302
一瞬	-12303
一经	-12304
一试	-12305
一足	-12306
一躲	-12307
一过	-12308
七个	-12309
万丈	-12310
万倍	-12311
万段	-12312
万马	-12313
三刀	-12314
三刻	-12315
三千	-12316
三夜	-12317
三门	-12318
三阴	-12319
上有	-12320
上绣	-12321
下三	-12322
下堕	-12323
下拜	-12324
下气	-12325
下流	-12326
不为	-12327
不义	-12328
不侵	-12329
不响	-12330
不惜	-12331
不正	-12332
不痛	-12333
不睬	-12334
不逊	-12335
不防	-12336
与我	-12337
世俗	-12338
东海	-12339
丢脸	-12340
两侧	-12341
两剑	-12342
两把	-12343
中州	-12344
中放	-12345
中都	-12346
为大	-12347
为妙	-12348
为强	-12349
为念	-12350
为是	-12351
为止	-12352
为的	-12353
举掌	-12354
之初	-12355
之师	-12356
之畔	-12357
之面	-12358
乖宝	-12359
乖戾	-12360
九回	-12361
九年	-12362
九成	-12363
九打	-12364
也似	-12365
习练	-12366
乡农	-12367
买了	-12368
买卖	-12369
乱伦	-12370
乱抓	-12371
乱走	-12372
了心	-12373
争先	-12374
事体	-12375
事关	-12376
二丈	-12377
二尸	-12378
二年	-12379
亏你	-12380
云驾	-12381
五回	-12382
五岁	-12383
五斗	-12384
五色	-12385
交到	-12386
交手	-12387
京城	-12388
亲亲	-12389
亲夫	-12390
亲身	-12391
人世	-12392
人以	-12393
人力	-12394
人鸢	-12395
仁慈	-12396
从旁	-12397
他可	-12398
他知	-12399
他若	-12400
仙人	-12401
仙影	-12402
代为	-12403
代他	-12404
以往	-12405
任其	-12406
任意	-12407
份上	-12408
伉俪	-12409
伏魔	-12410
传得	-12411
伤你	-12412
伤感	-12413
伸臂	-12414
伸足	-12415
但以	-12416
但教	-12417
位居	-12418
低呼	-12419
何苦	-12420
余下	-12421
余人	-12422
余裕	-12423
作主	-12424
作客	-12425
作揖	-12426
你从	-12427
你啦	-12428
你很	-12429
你手	-12430
你爱	-12431
你竟	-12432
你自	-12433
你莫	-12434
你请	-12435
你那	-12436
你都	-12437
使婢	-12438
侍女	-12439
侍立	-12440
侵袭	-12441
便咬	-12442
便奔	-12443
便无	-12444
便杀	-12445
便由	-12446
便算	-12447
俊秀	-12448
俗子	-12449
保住	-12450
保国	-12451
信封	-12452
值得	-12453
倾倒	-12454
倾心	-12455
假传	-12456
假话	-12457
做个	-12458
做事	-12459
做到	-12460
做戏	-12461
偷听	-12462
先去	-12463
先来	-12464
光了	-12465
入手	-12466
入耳	-12467
全不	-12468
公公	-12469
六十	-12470
六腑	-12471
关门	-12472
其一	-12473
再三	-12474
再不	-12475
再取	-12476
再向	-12477
再有	-12478
再用	-12479
写字	-12480
写得	-12481
军心	-12482
冲开	-12483
冲霄	-12484
准头	-12485
几人	-12486
几手	-12487
出剑	-12488
击到	-12489
刀刃	-12490
刀来	-12491
刀背	-12492
分头	-12493
分散	-12494
分离	-12495
划去	-12496
刚强	-12497
刚要	-12498
利器	-12499
别处	-12500
制服	-12501
刺痛	-12502
刺耳	-12503
前无	-12504
前胸	-12505
办理	-12506
功名	-12507
加劲	-12508
动容	-12509
助我	-12510
勃然	-12511
勇敢	-12512
勿来	-12513
包某	-12514
北宋	-12515
北门	-12516
匹夫	-12517
匾额	-12518
十指	-12519
十馀	-12520
千斤	-12521
升官	-12522
午后	-12523
半响	-12524
半身	-12525
半载	-12526
单兄	-12527
单名	-12528
南人	-12529
南边	-12530
即令	-12531
即使	-12532
却说	-12533
厌了	-12534
厌憎	-12535
原可	-12536
原处	-12537
原由	-12538
原路	-12539
去和	-12540
去接	-12541
又喜	-12542
又行	-12543
双姝	-12544
双肩	-12545
双锤	-12546
发愁	-12547
取得	-12548
受辱	-12549
变得	-12550
口一	-12551
只会	-12552
可乘	-12553
可也	-12554
可亲	-12555
可叹	-12556
可好	-12557
叹气	-12558
吃些	-12559
吃完	-12560
吃得	-12561
吃荤	-12562
合围	-12563
同仇	-12564
同生	-12565
名满	-12566
名贵	-12567
名闻	-12568
后院	-12569
含有	-12570
听从	-12571
吹牛	-12572
呒不	-12573
周围	-12574
呼召	-12575
呼号	-12576
呼喊	-12577
命人	-12578
和蔼	-12579
咕咚	-12580
咬啮	-12581
哪个	-12582
唾沫	-12583
喀喀	-12584
善于	-12585
善罢	-12586
喜爱	-12587
喝这	-12588
喷嚏	-12589
嘘嘘	-12590
嘴上	-12591
噗哧	-12592
噩噩	-12593
四刀	-12594
四千	-12595
四掌	-12596
四株	-12597
四爷	-12598
四盆	-12599
回护	-12600
回报	-12601
团聚	-12602
困苦	-12603
国法	-12604
圣人	-12605
在于	-12606
在场	-12607
在寺	-12608
地厚	-12609
地步	-12610
地面	-12611
均无	-12612
坐了	-12613
块的	-12614
坚冰	-12615
垂首	-12616
堂上	-12617
塞上	-12618
境地	-12619
处事	-12620
处于	-12621
复生	-12622
多嘴	-12623
多情	-12624
多数	-12625
多杀	-12626
多言	-12627
大位	-12628
大力	-12629
大嫂	-12630
大字	-12631
大宁	-12632
大官	-12633
大富	-12634
大戒	-12635
大权	-12636
大碍	-12637
大穴	-12638
大贵	-12639
大辱	-12640
天仙	-12641
天日	-12642
天气	-12643
天的	-12644
天险	-12645
天高	-12646
天鹅	-12647
太强	-12648
失措	-12649
失敬	-12650
夸奖	-12651
夹手	-12652
奄奄	-12653
奉了	-12654
女流	-12655
奸徒	-12656
她不	-12657
她只	-12658
好气	-12659
如云	-12660
如火	-12661
妄言	-12662
姑丈	-12663
姓萧	-12664
娇嫩	-12665
嫂子	-12666
孔中	-12667
存着	-12668
孝心	-12669
孤单	-12670
孤苦	-12671
安睡	-12672
宏伟	-12673
官居	-12674
宝剑	-12675
宝殿	-12676
宰割	-12677
密谋	-12678
寒意	-12679
寨主	-12680
对之	-12681
寻访	-12682
将船	-12683
尊兄	-12684
尊贵	-12685
小了	-12686
小包	-12687
小巧	-12688
小溪	-12689
尔等	-12690
就可	-12691
尽拣	-12692
屈膝	-12693
屋去	-12694
山下	-12695
山头	-12696
山来	-12697
山水	-12698
崎岖	-12699
崔过	-12700
巡查	-12701
左袖	-12702
差劲	-12703
差得	-12704
已从	-12705
已全	-12706
已多	-12707
已觉	-12708
已足	-12709
布施	-12710
希罕	-12711
帝王	-12712
带她	-12713
带来	-12714
干冒	-12715
平地	-12716
庄兄	-12717
座位	-12718
庭中	-12719
引诱	-12720
弯腰	-12721
弹指	-12722
归来	-12723
归还	-12724
当我	-12725
当的	-12726
很久	-12727
徒孙	-12728
徒然	-12729
得以	-12730
得逞	-12731
循声	-12732
微末	-12733
微觉	-12734
德行	-12735
心来	-12736
志室	-12737
忙忙	-12738
忠于	-12739
快滚	-12740
快的	-12741
怎不	-12742
怎敢	-12743
怒从	-12744
怒骂	-12745
怜悯	-12746
急冲	-12747
怪他	-12748
总舵	-12749
总觉	-12750
恁地	-12751
恋恋	-12752
恩重	-12753
恶战	-12754
悟性	-12755
悲苦	-12756
情欲	-12757
情理	-12758
惊动	-12759
惊怒	-12760
惨厉	-12761
愁苦	-12762
意下	-12763
慈爱	-12764
慌了	-12765
慧镜	-12766
成算	-12767
成败	-12768
我心	-12769
我正	-12770
我求	-12771
我连	-12772
战场	-12773
所传	-12774
所料	-12775
所犯	-12776
所用	-12777
所种	-12778
所藏	-12779
手劲	-12780
手快	-12781
手肘	-12782
才会	-12783
才略	-12784
打力	-12785
打的	-12786
打算	-12787
扣押	-12788
扣留	-12789
扫去	-12790
扮得	-12791
扳桨	-12792
扶我	-12793
找些	-12794
抑制	-12795
抛在	-12796
抢去	-12797
抱我	-12798
拖延	-12799
拚斗	-12800
拢来	-12801
拿住	-12802
挂在	-12803
指上	-12804
指使	-12805
挥了	-12806
捉拿	-12807
掉头	-12808
掌上	-12809
掌势	-12810
排场	-12811
接了	-12812
接位	-12813
接天	-12814
接续	-12815
插嘴	-12816
插手	-12817
握着	-12818
搂抱	-12819
搜寻	-12820
搭救	-12821
摔下	-12822
摺扇	-12823
撕得	-12824
擒到	-12825
擒去	-12826
擒来	-12827
擦擦	-12828
支撑	-12829
改投	-12830
攻势	-12831
故人	-12832
散功	-12833
数掌	-12834
敲击	-12835
敷衍	-12836
文章	-12837
斗然	-12838
斜刺	-12839
断折	-12840
断筋	-12841
断绝	-12842
方圆	-12843
旁鹜	-12844
无主	-12845
无味	-12846
无怪	-12847
无愧	-12848
无父	-12849
无端	-12850
无缘	-12851
无缚	-12852
日光	-12853
日思	-12854
时便	-12855
时机	-12856
旷野	-12857
明鉴	-12858
春药	-12859
是极	-12860
是错	-12861
暖气	-12862
暴虐	-12863
更多	-12864
更要	-12865
曾经	-12866
有令	-12867
有好	-12868
有物	-12869
有言	-12870
朝天	-12871
未愈	-12872
本心	-12873
朱天	-12874
杆棒	-12875
杖责	-12876
松开	-12877
松手	-12878
极多	-12879
枝干	-12880
枝箭	-12881
枯枝	-12882
枯禅	-12883
查究	-12884
柱中	-12885
柳树	-12886
栗栗	-12887
森严	-12888
森林	-12889
横梁	-12890
横过	-12891
欣喜	-12892
欣然	-12893
欺凌	-12894
欺压	-12895
款待	-12896
歉仄	-12897
歌颂	-12898
止血	-12899
正如	-12900
正正	-12901
正淳	-12902
正题	-12903
步子	-12904
步棋	-12905
武侠	-12906
武术	-12907
死法	-12908
死活	-12909
毒发	-12910
毒粉	-12911
毛毡	-12912
气喘	-12913
气度	-12914
气流	-12915
永不	-12916
求医	-12917
求情	-12918
没的	-12919
沮丧	-12920
油油	-12921
治了	-12922
泼辣	-12923
洞穴	-12924
津津	-12925
派了	-12926
派出	-12927
流动	-12928
流水	-12929
涌上	-12930
深浅	-12931
清亮	-12932
清修	-12933
游目	-12934
湿了	-12935
滚动	-12936
灰布	-12937
炕上	-12938
点化	-12939
烂了	-12940
烟气	-12941
烦躁	-12942
烧炙	-12943
烧起	-12944
热的	-12945
焉能	-12946
焦线	-12947
照得	-12948
熄灭	-12949
爱我	-12950
牡丹	-12951
牲口	-12952
牵动	-12953
牵扯	-12954
犯戒	-12955
献丑	-12956
玄惭	-12957
玩物	-12958
现在	-12959
珍异	-12960
珠泪	-12961
理她	-12962
琴韵	-12963
甘拜	-12964
甚深	-12965
生人	-12966
生生	-12967
生血	-12968
用功	-12969
甬道	-12970
留守	-12971
留心	-12972
留意	-12973
疯了	-12974
疯子	-12975
痊愈	-12976
白天	-12977
白头	-12978
白布	-12979
白衫	-12980
白酒	-12981
百年	-12982
百感	-12983
百战	-12984
的众	-12985
的几	-12986
的在	-12987
的坐	-12988
的确	-12989
的路	-12990
的黄	-12991
皇室	-12992
监视	-12993
直视	-12994
相偕	-12995
相去	-12996
相反	-12997
相告	-12998
相搏	-12999
相视	-13000
相询	-13001
相较	-13002
看出	-13003
眷属	-13004
眼目	-13005
眼花	-13006
着几	-13007
睡去	-13008
石块	-13009
石杵	-13010
石的	-13011
破戒	-13012
确也	-13013
确有	-13014
碎尸	-13015
碧焰	-13016
礼佛	-13017
神封	-13018
神技	-13019
神音	-13020
祸患	-13021
禅位	-13022
禅宗	-13023
禅师	-13024
秀发	-13025
积水	-13026
穿衣	-13027
窗上	-13028
窗口	-13029
窜出	-13030
立誓	-13031
竖起	-13032
站住	-13033
竟连	-13034
笑着	-13035
第七	-13036
笼罩	-13037
等你	-13038
筋骨	-13039
筵席	-13040
简直	-13041
算帐	-13042
粉脸	-13043
粗重	-13044
精奇	-13045
系在	-13046
红光	-13047
红烛	-13048
纤细	-13049
纤腰	-13050
纵使	-13051
纹丝	-13052
给了	-13053
绝交	-13054
统领	-13055
绳子	-13056
维护	-13057
绿灯	-13058
缟素	-13059
缰绳	-13060
缺字	-13061
罢斗	-13062
罪责	-13063
羞辱	-13064
群起	-13065
翻飞	-13066
者不	-13067
者亦	-13068
而尽	-13069
而语	-13070
耳赤	-13071
聋子	-13072
职司	-13073
肃穆	-13074
肥肉	-13075
肿起	-13076
胜得	-13077
胡作	-13078
胸间	-13079
脉脉	-13080
脚印	-13081
脚趾	-13082
脚踢	-13083
脚边	-13084
腕脉	-13085
自保	-13086
自去	-13087
自居	-13088
自左	-13089
臭屁	-13090
至亲	-13091
至诚	-13092
舍得	-13093
苟读	-13094
若干	-13095
苦了	-13096
苦功	-13097
英气	-13098
茶几	-13099
草海	-13100
药店	-13101
莫哥	-13102
落到	-13103
落子	-13104
虬髯	-13105
虽强	-13106
虽快	-13107
虽非	-13108
血来	-13109
血渍	-13110
行得	-13111
衣角	-13112
袖里	-13113
被害	-13114
被点	-13115
袭来	-13116
装傻	-13117
要了	-13118
要以	-13119
要再	-13120
要她	-13121
要见	-13122
见教	-13123
见闻	-13124
觉贤	-13125
计策	-13126
计算	-13127
计谋	-13128
认了	-13129
讥讽	-13130
记认	-13131
设宴	-13132
诗书	-13133
诚心	-13134
诚意	-13135
话题	-13136
语声	-13137
说上	-13138
说些	-13139
说成	-13140
诸家	-13141
谄谀	-13142
谅来	-13143
谈何	-13144
败露	-13145
贴贴	-13146
贵干	-13147
费力	-13148
费心	-13149
贻笑	-13150
赏赐	-13151
赞成	-13152
走一	-13153
走动	-13154
走走	-13155
赶着	-13156
赶紧	-13157
足印	-13158
足蹈	-13159
足迹	-13160
跃入	-13161
跌入	-13162
距离	-13163
跪在	-13164
跪地	-13165
踏出	-13166
踏在	-13167
踏进	-13168
转去	-13169
转折	-13170
转瞬	-13171
转而	-13172
软了	-13173
软泥	-13174
软瘫	-13175
软语	-13176
软软	-13177
轻视	-13178
输入	-13179
辗转	-13180
边上	-13181
过他	-13182
过谦	-13183
运转	-13184
近了	-13185
近前	-13186
还剑	-13187
还待	-13188
还得	-13189
还须	-13190
还魂	-13191
这句	-13192
这招	-13193
这柄	-13194
这段	-13195
这笔	-13196
连响	-13197
迟早	-13198
迷倒	-13199
迸裂	-13200
追寻	-13201
追魂	-13202
送出	-13203
透入	-13204
透出	-13205
通入	-13206
通道	-13207
逞强	-13208
遇见	-13209
道德	-13210
遭遇	-13211
那信	-13212
那有	-13213
那还	-13214
那麽	-13215
邪功	-13216
邪魔	-13217
郁吴	-13218
酒饭	-13219
酸楚	-13220
酸痛	-13221
醉了	-13222
醒来	-13223
采声	-13224
采药	-13225
重了	-13226
金光	-13227
金属	-13228
金牌	-13229
钢仗	-13230
铁叉	-13231
铁杆	-13232
铁铐	-13233
铜钱	-13234
银两	-13235
锄头	-13236
锋锐	-13237
锦绣	-13238
长流	-13239
长笑	-13240
门边	-13241
闪动	-13242
闭住	-13243
问个	-13244
间便	-13245
间的	-13246
闺名	-13247
闻了	-13248
阁中	-13249
阿萝	-13250
陡峭	-13251
陪了	-13252
陪同	-13253
陷阱	-13254
随和	-13255
随身	-13256
随风	-13257
隐僻	-13258
隔壁	-13259
难决	-13260
难测	-13261
难言	-13262
雍容	-13263
露面	-13264
青烟	-13265
非小	-13266
面壁	-13267
音讯	-13268
顶门	-13269
领兵	-13270
领袖	-13271
颇拉	-13272
颓然	-13273
额角	-13274
飘来	-13275
飘然	-13276
飘行	-13277
飘逸	-13278
飞步	-13279
飞骑	-13280
饥饿	-13281
饱了	-13282
饶你	-13283
饿得	-13284
马儿	-13285
马脸	-13286
驰马	-13287
骑了	-13288
骑士	-13289
骑驴	-13290
骡车	-13291
高丽	-13292
高傲	-13293
高姓	-13294
高的	-13295
高祖	-13296
魂散	-13297
鸣响	-13298
黄旗	-13299
黄纸	-13300
黑烟	-13301
齐心	-13302
▁一众	-13303
▁不论	-13304
▁从此	-13305
▁以后	-13306
▁你不	-13307
▁你的	-13308
▁初时	-13309
▁只须	-13310
▁多半	-13311
▁多谢	-13312
▁大师	-13313
▁契丹	-13314
▁好吧	-13315
▁妈妈	-13316
▁妙极	-13317
▁妹子	-13318
▁姊姊	-13319
▁姥姥	-13320
▁宗赞	-13321
▁小弟	-13322
▁我有	-13323
▁我的	-13324
▁本参	-13325
▁本观	-13326
▁段兄	-13327
▁眼前	-13328
▁缘根	-13329
▁舅妈	-13330
▁行到	-13331
▁辽军	-13332
▁这小	-13333
▁这种	-13334
▁除了	-13335
一不做	-13336
一古脑	-13337
一咬牙	-13338
一大半	-13339
一派的	-13340
一片片	-13341
一眼望	-13342
一阵阵	-13343
丁施主	-13344
上一口	-13345
上乘客	-13346
上几眼	-13347
不了我	-13348
不像人	-13349
不可以	-13350
不相信	-13351
不相助	-13352
不知要	-13353
不绝的	-13354
不能让	-13355
不要紧	-13356
不许我	-13357
不论是	-13358
不过了	-13359
不还手	-13360
与虚竹	-13361
世界上	-13362
两个是	-13363
两黄金	-13364
个个都	-13365
中了毒	-13366
中原的	-13367
中毒后	-13368
为第一	-13369
为驸马	-13370
之不武	-13371
乔峰是	-13372
乖徒儿	-13373
也不算	-13374
也不说	-13375
也到了	-13376
也只是	-13377
也有了	-13378
也渐渐	-13379
乱石谷	-13380
了一头	-13381
了一根	-13382
了三分	-13383
二不休	-13384
云驾雾	-13385
五斗米	-13386
人之位	-13387
人之手	-13388
从地下	-13389
从段誉	-13390
他们要	-13391
他儿子	-13392
他口中	-13393
他是在	-13394
他是我	-13395
他父母	-13396
令他们	-13397
以一敌	-13398
众叛军	-13399
众门人	-13400
伤他的	-13401
伸左手	-13402
伸手来	-13403
但心中	-13404
但这些	-13405
位高僧	-13406
你以为	-13407
你何必	-13408
你又来	-13409
你可知	-13410
你将我	-13411
你胆敢	-13412
你说得	-13413
你说过	-13414
使上了	-13415
便不会	-13416
俏药叉	-13417
信得过	-13418
倒有一	-13419
倘若他	-13420
做梦也	-13421
做错了	-13422
光屁股	-13423
全然的	-13424
其余的	-13425
写的是	-13426
冰蚕的	-13427
几个字	-13428
出什么	-13429
别而行	-13430
到这儿	-13431
到那里	-13432
刺入了	-13433
劈空掌	-13434
十二回	-13435
十余万	-13436
十八代	-13437
十八回	-13438
十八岁	-13439
十八破	-13440
十六七	-13441
单伯山	-13442
去救人	-13443
又听得	-13444
又瞧瞧	-13445
双手急	-13446
取笑了	-13447
另一人	-13448
只怕他	-13449
只瞧得	-13450
只要他	-13451
叫段誉	-13452
可知道	-13453
可笑啊	-13454
各派的	-13455
合什道	-13456
吐番国	-13457
向北行	-13458
听你的	-13459
听她说	-13460
听我话	-13461
吴领军	-13462
呜咽道	-13463
和哩布	-13464
和谭婆	-13465
哪知他	-13466
商阳剑	-13467
喝上几	-13468
四十岁	-13469
回头向	-13470
在一只	-13471
在一间	-13472
在身边	-13473
在这一	-13474
在道上	-13475
地道中	-13476
声响起	-13477
大元帅	-13478
大殿上	-13479
大蜈蚣	-13480
天宁寺	-13481
太也不	-13482
头大汗	-13483
头猛虎	-13484
奋不顾	-13485
奔到了	-13486
女娃子	-13487
女施主	-13488
奸大恶	-13489
好兄弟	-13490
好言相	-13491
妇人道	-13492
妹子的	-13493
娇怯怯	-13494
孙三道	-13495
宋陈吴	-13496
客客气	-13497
对花鞋	-13498
将乔峰	-13499
将他的	-13500
将坐骑	-13501
将手中	-13502
将那人	-13503
将阿朱	-13504
小心些	-13505
小箭头	-13506
就是不	-13507
就算是	-13508
层层的	-13509
崖自尽	-13510
已尽数	-13511
带你去	-13512
当他是	-13513
很厉害	-13514
得了个	-13515
得很了	-13516
得很哪	-13517
得甚是	-13518
御营中	-13519
心所欲	-13520
快出来	-13521
怎么又	-13522
怎么是	-13523
怎地会	-13524
想什么	-13525
感奇怪	-13526
我一直	-13527
我不信	-13528
我不该	-13529
我儿子	-13530
我决不	-13531
我和他	-13532
我师兄	-13533
我当然	-13534
我怎地	-13535
我怎能	-13536
我正在	-13537
我生平	-13538
我真是	-13539
我瞧你	-13540
我这就	-13541
所以然	-13542
手腕上	-13543
扑上来	-13544
打起来	-13545
扭断了	-13546
拍拍拍	-13547
挡住了	-13548
捉住了	-13549
摸不着	-13550
撞到了	-13551
支中鹤	-13552
收我为	-13553
放心了	-13554
敌为友	-13555
数百人	-13556
新帮主	-13557
无声息	-13558
无法再	-13559
无缚鸡	-13560
无聊赖	-13561
日夜夜	-13562
明晃晃	-13563
是他的	-13564
是女子	-13565
是我们	-13566
更是不	-13567
更显得	-13568
有几分	-13569
有谁能	-13570
服侍你	-13571
未必便	-13572
本想说	-13573
本门的	-13574
杀师父	-13575
杏子林	-13576
来来来	-13577
来跟你	-13578
枚白子	-13579
柄单刀	-13580
武功上	-13581
武学的	-13582
段殿下	-13583
母亲的	-13584
每一次	-13585
比自己	-13586
求求你	-13587
汉人的	-13588
江南来	-13589
油然而	-13590
深谷中	-13591
清楚了	-13592
渐渐的	-13593
点燃了	-13594
父子的	-13595
牌时分	-13596
狞笑道	-13597
猛然间	-13598
猜不透	-13599
玉枕穴	-13600
王通治	-13601
生怕他	-13602
生我的	-13603
男人的	-13604
男子的	-13605
百姓的	-13606
的一片	-13607
的为妙	-13608
的书信	-13609
的剧毒	-13610
的劲力	-13611
的女人	-13612
的女儿	-13613
的好手	-13614
的师弟	-13615
的影子	-13616
的故事	-13617
的榜文	-13618
的步法	-13619
的滋味	-13620
的绝技	-13621
的背心	-13622
的英雄	-13623
的面子	-13624
皇宫中	-13625
看不清	-13626
看了看	-13627
着一双	-13628
着一根	-13629
着脸道	-13630
瞧着她	-13631
瞧见了	-13632
知客僧	-13633
矮老者	-13634
碧磷洞	-13635
神不知	-13636
禁不住	-13637
第三层	-13638
第三日	-13639
粗声粗	-13640
纵横交	-13641
经历过	-13642
给你们	-13643
给我滚	-13644
美是丑	-13645
老婆婆	-13646
而来的	-13647
耻大辱	-13648
胡涂了	-13649
胸口的	-13650
脚下一	-13651
自不免	-13652
自己也	-13653
自己已	-13654
自怨自	-13655
臭小子	-13656
萧施主	-13657
薄薄的	-13658
虽不能	-13659
西夏去	-13660
要杀他	-13661
要知道	-13662
见了他	-13663
见帮主	-13664
见虚竹	-13665
觉得这	-13666
说不得	-13667
说不迟	-13668
说他是	-13669
说我是	-13670
说话了	-13671
说话时	-13672
请众位	-13673
诸高僧	-13674
贱人的	-13675
走到她	-13676
越听越	-13677
跟你一	-13678
跟她说	-13679
跟着他	-13680
身子便	-13681
转到了	-13682
轻声道	-13683
辆大车	-13684
还不够	-13685
还是个	-13686
这少年	-13687
这种事	-13688
这老贼	-13689
这贱婢	-13690
连我也	-13691
逐出帮	-13692
通天草	-13693
遮住了	-13694
避过了	-13695
那么你	-13696
那二人	-13697
那男子	-13698
那知道	-13699
那老汉	-13700
那自是	-13701
都是你	-13702
都暗暗	-13703
钻入了	-13704
阁下的	-13705
阿修罗	-13706
陆凉州	-13707
隐隐有	-13708
难为你	-13709
难道你	-13710
难道我	-13711
露出了	-13712
青凤阁	-13713
顺着他	-13714
风四弟	-13715
风四爷	-13716
马五德	-13717
马大哥	-13718
高叔叔	-13719
鸾天部	-13720
▁他不敢	-13721
▁他双手	-13722
▁他左手	-13723
▁他自幼	-13724
▁但见他	-13725
▁你怎么	-13726
▁你自己	-13727
▁努儿海	-13728
▁却不知	-13729
▁另一个	-13730
▁可是他	-13731
▁大厅上	-13732
▁奚长老	-13733
▁慕容氏	-13734
▁是不是	-13735
▁段正明	-13736
▁段誉自	-13737
▁江湖上	-13738
▁波罗星	-13739
▁红袍人	-13740
▁要是我	-13741
▁这四人	-13742
▁这小子	-13743
▁这样吧	-13744
▁那两人	-13745
▁那僧人	-13746
▁那农女	-13747
▁那汉人	-13748
▁那老翁	-13749
▁那辽人	-13750
▁那道姑	-13751
▁钟姑娘	-13752
▁马五德	-13753
一个小小	-13754
一个苍老	-13755
一团漆黑	-13756
一声大叫	-13757
一声长啸	-13758
一败涂地	-13759
丈许之外	-13760
三个少女	-13761
三个问题	-13762
下了一子	-13763
下此毒手	-13764
不出什么	-13765
不明所以	-13766
不识好歹	-13767
与丁春秋	-13768
与慕容复	-13769
与鸠摩智	-13770
东南角上	-13771
两不相助	-13772
临死时的	-13773
主持大局	-13774
乔峰这厮	-13775
也决不能	-13776
也是不能	-13777
也是无用	-13778
了数十年	-13779
二十余人	-13780
云中鹤的	-13781
五脏六腑	-13782
些什么人	-13783
什么事都	-13784
仁义道德	-13785
从马背上	-13786
他的铁头	-13787
伏在地下	-13788
众位朋友	-13789
传了过来	-13790
伸出左手	-13791
伸手入怀	-13792
伸手去摸	-13793
你一件事	-13794
你一辈子	-13795
你什么事	-13796
你怎么不	-13797
你怎么啦	-13798
你怎知道	-13799
你的性命	-13800
你这人真	-13801
使剑汉子	-13802
保定帝和	-13803
保定帝的	-13804
修习内功	-13805
倒也不错	-13806
倘若真是	-13807
借力打力	-13808
全不相干	-13809
全然不同	-13810
全身发颤	-13811
八万四千	-13812
内力之强	-13813
内力充沛	-13814
内力深厚	-13815
内功深湛	-13816
再也难以	-13817
冰窖之中	-13818
冰蚕寒毒	-13819
决计不肯	-13820
凝思半晌	-13821
凝视半晌	-13822
几个起落	-13823
凡夫俗子	-13824
出家为僧	-13825
到了这里	-13826
到他身上	-13827
到处留情	-13828
刹那之间	-13829
十多年来	-13830
千万小心	-13831
千刀万剐	-13832
半斤八两	-13833
却是我的	-13834
又是欢喜	-13835
又有何妨	-13836
只觉一阵	-13837
叫了几声	-13838
叫做什么	-13839
司马林道	-13840
各有各的	-13841
同生共死	-13842
吐蕃武士	-13843
向包不同	-13844
听到有人	-13845
听在耳中	-13846
呼吸之声	-13847
命在顷刻	-13848
和慕容博	-13849
咬牙切齿	-13850
咱们还是	-13851
哇哇大叫	-13852
唠叨叨的	-13853
喜不自胜	-13854
嗤嗤两声	-13855
四大卫护	-13856
团团围住	-13857
在一起了	-13858
在他身后	-13859
在我面前	-13860
在这当口	-13861
垂了下来	-13862
外号叫作	-13863
多瞧一眼	-13864
多谢姑娘	-13865
大义分舵	-13866
大名鼎鼎	-13867
大声吆喝	-13868
大声呼叫	-13869
大声欢呼	-13870
大富大贵	-13871
大惊小怪	-13872
大敌当前	-13873
大燕皇帝	-13874
大理段家	-13875
天高地厚	-13876
奔到崖边	-13877
好不要脸	-13878
好奇心起	-13879
如此甚好	-13880
姓段之人	-13881
安好无恙	-13882
定了主意	-13883
宝贝儿子	-13884
对王语嫣	-13885
将她身子	-13886
少室山上	-13887
少林方丈	-13888
就此罢休	-13889
左子穆道	-13890
左手钢抓	-13891
左手铁杖	-13892
带着段誉	-13893
干光豪道	-13894
并不如何	-13895
并不答话	-13896
张大了口	-13897
微一迟疑	-13898
微微一动	-13899
微微躬身	-13900
心下大慰	-13901
心中一惊	-13902
心意已决	-13903
心腹大患	-13904
忘恩负义	-13905
快放开我	-13906
怎么知道	-13907
怎么还能	-13908
急忙缩手	-13909
性命不要	-13910
慕容兄弟	-13911
慕容氏的	-13912
成名绝技	-13913
我可不能	-13914
我在这里	-13915
我师父说	-13916
我怎么会	-13917
我自己的	-13918
手舞足蹈	-13919
打上一架	-13920
打了开来	-13921
打什么紧	-13922
拔开瓶塞	-13923
挖掘地道	-13924
挥了挥手	-13925
掌门人的	-13926
接了过来	-13927
掷了过去	-13928
揣入怀中	-13929
摔将下来	-13930
擒拿手法	-13931
放下地来	-13932
放在桌上	-13933
放心不下	-13934
放我下来	-13935
教训教训	-13936
断为两截	-13937
无不骇然	-13938
日思夜想	-13939
日日夜夜	-13940
是少林寺	-13941
是武林中	-13942
有人叫道	-13943
有什么用	-13944
有何吩咐	-13945
有道高僧	-13946
本派武功	-13947
本门功夫	-13948
杀了自己	-13949
来得好快	-13950
梅兰竹菊	-13951
武功不弱	-13952
武功甚高	-13953
歹毒暗器	-13954
死得冤枉	-13955
段公子的	-13956
段誉叫道	-13957
段誉叹道	-13958
段誉大喜	-13959
段誉心中	-13960
水落石出	-13961
沉吟片刻	-13962
没有法子	-13963
没来由的	-13964
泰山北斗	-13965
深厚内力	-13966
渐渐远去	-13967
游氏兄弟	-13968
满头大汗	-13969
漫不在乎	-13970
激射而出	-13971
灰衣僧道	-13972
灵鹫宫去	-13973
点头称是	-13974
热血上涌	-13975
父母之仇	-13976
牧牛放羊	-13977
王姑娘的	-13978
王语嫣等	-13979
甘拜下风	-13980
白须老者	-13981
百无聊赖	-13982
的瞧着她	-13983
直到此刻	-13984
看了一会	-13985
看了一眼	-13986
眼前一黑	-13987
瞧上一眼	-13988
矮胖和尚	-13989
砰砰两声	-13990
确是实情	-13991
碎尸万段	-13992
神色极是	-13993
称赞自己	-13994
站了起来	-13995
站在当地	-13996
站立不定	-13997
纷纷议论	-13998
纹丝不动	-13999
终于还是	-14000
给鸠摩智	-14001
罗里罗唆	-14002
罪孽深重	-14003
美貌姑娘	-14004
聋哑先生	-14005
胆战心惊	-14006
胜之不武	-14007
胡作非为	-14008
脱身逃走	-14009
脸上现出	-14010
脸现喜色	-14011
脸色苍白	-14012
腾云驾雾	-14013
自投罗网	-14014
自是十分	-14015
自然不会	-14016
苏星河的	-14017
英雄人物	-14018
荣华富贵	-14019
菩提树下	-14020
菩提院的	-14021
萧峰笑道	-14022
萧峰身边	-14023
萧远山道	-14024
虚竹心想	-14025
血肉模糊	-14026
行了一礼	-14027
被丁春秋	-14028
见了这等	-14029
见血封喉	-14030
觉得怎样	-14031
许多人都	-14032
说给我听	-14033
谈何容易	-14034
走上一步	-14035
走了进来	-14036
走近身去	-14037
越远越好	-14038
跳了下去	-14039
身形一幌	-14040
转念一想	-14041
还是及早	-14042
这么一个	-14043
这四个字	-14044
这小贱人	-14045
这是什么	-14046
连连磕头	-14047
迟了一步	-14048
逃之夭夭	-14049
那乡下人	-14050
都是一样	-14051
都是一般	-14052
钻了进去	-14053
镇南王的	-14054
阿碧姊姊	-14055
除此之外	-14056
雪地之中	-14057
露出马脚	-14058
面红耳赤	-14059
顷刻间便	-14060
风波恶道	-14061
高姓大名	-14062
默然不语	-14063
齐声答应	-14064
▁众人都是	-14065
▁公主殿下	-14066
▁康广陵道	-14067
▁段誉寻思	-14068
▁段誉登时	-14069
▁段誉见他	-14070
▁段誉问道	-14071
▁薛神医道	-14072
▁虚竹心下	-14073
▁过了半晌	-14074
▁过得片刻	-14075
▁邓百川等	-14076
▁那女子道	-14077
▁那红袍人	-14078
▁那老僧道	-14079
▁钟万仇道	-14080
▁钟夫人道	-14081
▁钟灵叫道	-14082
▁阿紫又道	-14083
一顿饭时分	-14084
不知有多少	-14085
与慕容先生	-14086
中原武林的	-14087
也不以为意	-14088
五斗米神功	-14089
千里迢迢的	-14090
可笑啊可笑	-14091
听他如此说	-14092
和南海鳄神	-14093
唠唠叨叨的	-14094
在什么地方	-14095
在少室山上	-14096
在杏子林中	-14097
大气也不敢	-14098
大理段氏的	-14099
姑苏燕子坞	-14100
完颜阿骨打	-14101
师兄弟八人	-14102
平南大元帅	-14103
延庆太子的	-14104
忽听得远处	-14105
我眼睛瞎了	-14106
断筋腐骨丸	-14107
无缚鸡之力	-14108
是何等样人	-14109
是星宿老怪	-14110
是武林中的	-14111
有性命之忧	-14112
段誉微笑道	-14113
段誉的手臂	-14114
气愤愤的道	-14115
灵鹫宫主人	-14116
灵鹫宫属下	-14117
点中了穴道	-14118
玉虚散人道	-14119
的一声惨呼	-14120
神仙姊姊的	-14121
虚竹点头道	-14122
被封的穴道	-14123
西夏一品堂	-14124
说话的正是	-14125
这些日子来	-14126
镇南王世子	-14127
闭上了眼睛	-14128
▁两名契丹兵	-14129
▁慕容复笑道	-14130
▁木婉清心想	-14131
▁枯荣大师道	-14132
▁王语嫣叫道	-14133
一名西夏武士	-14134
不可同日而语	-14135
丝毫不动声色	-14136
了不起的人物	-14137
向他怒目而视	-14138
吓得魂飞魄散	-14139
哈哈大笑起来	-14140
姑苏慕容公子	-14141
少林派的武功	-14142
无论如何不能	-14143
正是南海鳄神	-14144
段誉和王语嫣	-14145
瞧得清清楚楚	-14146
童姥和李秋水	-14147
第一风流浪子	-14148
耶律洪基笑道	-14149
脸上又是一红	-14150
说不出的难受	-14151
身上的生死符	-14152
过了多少时候	-14153
▁包不同摇头道	-14154
▁南海鳄神怒道	-14155
▁段誉暗暗叫苦	-14156
一颗心怦怦乱跳	-14157
天下第一大恶人	-14158
宋奚陈吴四长老	-14159
执法长老白世镜	-14160
▁王语嫣脸上一红	-14161
带头大哥和汪帮主	-14162
那是再好也没有了	-14163
一个女子的声音说道	-14164
:”	-14165
’)	-14166
▁。	-14167
▁依	-14168
▁像	-14169
▁前	-14170
▁妈	-14171
▁岂	-14172
▁既	-14173
▁然	-14174
▁真	-14175
▁睡	-14176
▁等	-14177
▁走	-14178
▁陈	-14179
▁青	-14180
▁须	-14181
一再	-14182
一别	-14183
一前	-14184
一层	-14185
一式	-14186
一忽	-14187
一扯	-14188
一按	-14189
一斧	-14190
一方	-14191
一旦	-14192
一松	-14193
一痛	-14194
一碰	-14195
一立	-14196
一站	-14197
一线	-14198
一网	-14199
一腿	-14200
一荡	-14201
一让	-14202
一说	-14203
一连	-14204
一项	-14205
一颤	-14206
一飘	-14207
一饮	-14208
一鼓	-14209
七分	-14210
七十	-14211
七回	-14212
七夜	-14213
七张	-14214
三丈	-14215
三响	-14216
三毒	-14217
三盆	-14218
三股	-14219
三言	-14220
三长	-14221
三项	-14222
上次	-14223
上船	-14224
下他	-14225
下凡	-14226
下在	-14227
下场	-14228
下旨	-14229
下首	-14230
不与	-14231
不令	-14232
不伤	-14233
不决	-14234
不坏	-14235
不太	-14236
不存	-14237
不学	-14238
不惧	-14239
不报	-14240
不比	-14241
不活	-14242
不畅	-14243
不破	-14244
不碍	-14245
不计	-14246
不避	-14247
不食	-14248
与那	-14249
且住	-14250
世务	-14251
业报	-14252
东土	-14253
东门	-14254
丝豪	-14255
两句	-14256
两大	-14257
两寸	-14258
两扇	-14259
两手	-14260
两指	-14261
两派	-14262
两点	-14263
两短	-14264
两语	-14265
两辈	-14266
两队	-14267
两面	-14268
严加	-14269
严密	-14270
中午	-14271
中已	-14272
中最	-14273
中来	-14274
中等	-14275
中装	-14276
临去	-14277
为何	-14278
为安	-14279
为本	-14280
主张	-14281
举世	-14282
久战	-14283
之世	-14284
之准	-14285
之劳	-14286
之技	-14287
之明	-14288
之望	-14289
之的	-14290
之秘	-14291
之能	-14292
之行	-14293
之辞	-14294
之险	-14295
乌某	-14296
乌黑	-14297
乎其	-14298
乏力	-14299
乘者	-14300
九个	-14301
九名	-14302
也叫	-14303
也如	-14304
也成	-14305
也来	-14306
也自	-14307
也配	-14308
书笺	-14309
书页	-14310
乱闯	-14311
争执	-14312
事物	-14313
事隔	-14314
二怪	-14315
二更	-14316
于地	-14317
云锦	-14318
云雾	-14319
五官	-14320
五招	-14321
交兵	-14322
亦未	-14323
亲切	-14324
亲厚	-14325
亲密	-14326
亲耳	-14327
人么	-14328
人称	-14329
仁厚	-14330
仇深	-14331
从空	-14332
从长	-14333
仓卒	-14334
他倒	-14335
他到	-14336
他口	-14337
他只	-14338
他向	-14339
他才	-14340
他本	-14341
他能	-14342
仗着	-14343
令誉	-14344
以报	-14345
任他	-14346
伎俩	-14347
伏低	-14348
伐宋	-14349
众所	-14350
伙人	-14351
会中	-14352
会说	-14353
会面	-14354
传递	-14355
传闻	-14356
伶俐	-14357
似海	-14358
但知	-14359
何出	-14360
何如	-14361
何止	-14362
佛学	-14363
作别	-14364
作品	-14365
作恶	-14366
你叫	-14367
你向	-14368
你呢	-14369
你喝	-14370
你妈	-14371
你把	-14372
你给	-14373
你问	-14374
你骂	-14375
使了	-14376
使到	-14377
侍仆	-14378
供奉	-14379
依我	-14380
侧耳	-14381
便发	-14382
便取	-14383
便抓	-14384
便收	-14385
便练	-14386
俊俏	-14387
俏丽	-14388
俗家	-14389
保佑	-14390
倒海	-14391
倒画	-14392
倒还	-14393
借尸	-14394
假如	-14395
做我	-14396
做的	-14397
做这	-14398
偷阅	-14399
催劲	-14400
傻子	-14401
儒雅	-14402
儿戏	-14403
元气	-14404
先人	-14405
先将	-14406
先是	-14407
先至	-14408
光佩	-14409
入寺	-14410
入门	-14411
全副	-14412
八嘴	-14413
八年	-14414
兴致	-14415
兴高	-14416
兵去	-14417
兵士	-14418
兵将	-14419
其法	-14420
兼之	-14421
冉冉	-14422
再听	-14423
再将	-14424
再强	-14425
再走	-14426
冒出	-14427
写给	-14428
冲冲	-14429
冲击	-14430
冲到	-14431
冲进	-14432
凝香	-14433
几眼	-14434
几粒	-14435
凭此	-14436
凶徒	-14437
出入	-14438
击掌	-14439
刀的	-14440
分站	-14441
分给	-14442
刑罚	-14443
划脚	-14444
列位	-14445
列队	-14446
刘竹	-14447
初见	-14448
利落	-14449
别有	-14450
制他	-14451
刺到	-14452
刺来	-14453
刻着	-14454
前途	-14455
剑术	-14456
剑经	-14457
剑阵	-14458
剧烈	-14459
副本	-14460
力大	-14461
劝解	-14462
办妥	-14463
加入	-14464
加紧	-14465
务请	-14466
动粗	-14467
动起	-14468
动身	-14469
劲急	-14470
劳什	-14471
势力	-14472
勇士	-14473
勇悍	-14474
勤练	-14475
包你	-14476
包裹	-14477
包风	-14478
匈奴	-14479
化身	-14480
十里	-14481
十香	-14482
千人	-14483
千军	-14484
千年	-14485
千真	-14486
半招	-14487
半途	-14488
华丽	-14489
华贵	-14490
单季	-14491
单身	-14492
南行	-14493
即逝	-14494
却以	-14495
却想	-14496
却比	-14497
却觉	-14498
卷入	-14499
厅口	-14500
厉声	-14501
厚厚	-14502
原也	-14503
原意	-14504
厨子	-14505
去学	-14506
去想	-14507
去见	-14508
参禅	-14509
又怒	-14510
又打	-14511
又极	-14512
双剑	-14513
反是	-14514
反激	-14515
反败	-14516
反身	-14517
发令	-14518
发动	-14519
发号	-14520
发喊	-14521
发起	-14522
取来	-14523
受刑	-14524
受她	-14525
受用	-14526
变心	-14527
叛国	-14528
叠叠	-14529
口吻	-14530
口哨	-14531
古傅	-14532
古里	-14533
只顾	-14534
叫喊	-14535
召集	-14536
可施	-14537
可算	-14538
可贺	-14539
右眼	-14540
号哭	-14541
叽叽	-14542
吃肉	-14543
吃面	-14544
各地	-14545
各挺	-14546
同父	-14547
同赴	-14548
后堂	-14549
后跃	-14550
后辈	-14551
向大	-14552
吓人	-14553
吓我	-14554
含情	-14555
含意	-14556
含糊	-14557
听者	-14558
吹起	-14559
吾兄	-14560
呀呀	-14561
告别	-14562
呜呼	-14563
周知	-14564
命么	-14565
命了	-14566
咄咄	-14567
咪咪	-14568
咬人	-14569
咬我	-14570
哀痛	-14571
哑然	-14572
哥儿	-14573
啊唷	-14574
啊嚏	-14575
善地	-14576
善恶	-14577
喉间	-14578
喜出	-14579
喝彩	-14580
嘴边	-14581
噩耗	-14582
噪子	-14583
嚷嚷	-14584
囚禁	-14585
四四	-14586
四处	-14587
四天	-14588
四条	-14589
四的	-14590
四目	-14591
回府	-14592
回心	-14593
国人	-14594
国君	-14595
图解	-14596
土地	-14597
圣贤	-14598
在东	-14599
在众	-14600
在侧	-14601
在雪	-14602
在高	-14603
地转	-14604
坚硬	-14605
坡上	-14606
垂危	-14607
垂青	-14608
埋在	-14609
埋葬	-14610
塞了	-14611
填膺	-14612
声威	-14613
声调	-14614
复又	-14615
外伤	-14616
外魔	-14617
多些	-14618
多所	-14619
多日	-14620
大业	-14621
大乘	-14622
大刀	-14623
大勇	-14624
大可	-14625
大块	-14626
大怪	-14627
大旗	-14628
大杀	-14629
大梦	-14630
大概	-14631
大着	-14632
大罪	-14633
大致	-14634
大败	-14635
大队	-14636
大震	-14637
天外	-14638
天子	-14639
天旋	-14640
天涯	-14641
天然	-14642
天狼	-14643
天衣	-14644
夺去	-14645
夺回	-14646
奇书	-14647
奇形	-14648
奔上	-14649
奔入	-14650
奔进	-14651
奴隶	-14652
奸恶	-14653
她又	-14654
好几	-14655
如沸	-14656
如泥	-14657
如焚	-14658
如麻	-14659
妃子	-14660
妖怪	-14661
妖邪	-14662
妙啊	-14663
妙着	-14664
妮子	-14665
妻四	-14666
姓李	-14667
姓氏	-14668
姓王	-14669
威武	-14670
威胁	-14671
娇柔	-14672
娇艳	-14673
娘儿	-14674
娶妻	-14675
嫁给	-14676
子也	-14677
子侄	-14678
子矩	-14679
字条	-14680
孤陋	-14681
学来	-14682
学着	-14683
它们	-14684
守卫	-14685
定当	-14686
定能	-14687
宝相	-14688
实不	-14689
实乃	-14690
实所	-14691
害他	-14692
害羞	-14693
容身	-14694
寂然	-14695
寒风	-14696
对啦	-14697
对弈	-14698
寻仇	-14699
寻我	-14700
封皮	-14701
射入	-14702
将头	-14703
将心	-14704
将要	-14705
将门	-14706
小刀	-14707
小字	-14708
小筑	-14709
小路	-14710
小铁	-14711
小队	-14712
尖叫	-14713
尚自	-14714
就不	-14715
就如	-14716
就怕	-14717
尸骸	-14718
尽失	-14719
屈指	-14720
屋前	-14721
屏风	-14722
属于	-14723
山上	-14724
山玩	-14725
山石	-14726
山西	-14727
岂肯	-14728
岔道	-14729
峰下	-14730
峰造	-14731
崩驾	-14732
嶙峋	-14733
左军	-14734
左拳	-14735
左颊	-14736
巧巧	-14737
巨大	-14738
巨石	-14739
已失	-14740
已定	-14741
已明	-14742
已深	-14743
已远	-14744
巴兄	-14745
帝皇	-14746
帝讳	-14747
帝释	-14748
帮你	-14749
帽子	-14750
平整	-14751
平白	-14752
年长	-14753
并列	-14754
幻想	-14755
幼小	-14756
庄客	-14757
庆图	-14758
应得	-14759
应援	-14760
店伴	-14761
废去	-14762
庭院	-14763
建造	-14764
开交	-14765
开始	-14766
开导	-14767
开朗	-14768
开河	-14769
异议	-14770
引导	-14771
弱点	-14772
归西	-14773
当晚	-14774
形如	-14775
形秽	-14776
彻骨	-14777
往事	-14778
往她	-14779
往生	-14780
往西	-14781
很有	-14782
徒具	-14783
徒子	-14784
得享	-14785
得力	-14786
得去	-14787
得她	-14788
得得	-14789
得甚	-14790
得蒙	-14791
御敌	-14792
心地	-14793
心境	-14794
心狠	-14795
心痒	-14796
忙得	-14797
念诵	-14798
忽起	-14799
怒发	-14800
思量	-14801
怠慢	-14802
急急	-14803
急攻	-14804
急步	-14805
急躁	-14806
怨气	-14807
怪字	-14808
怯意	-14809
恩典	-14810
恭候	-14811
恭送	-14812
恶事	-14813
恶名	-14814
恶徒	-14815
悔恨	-14816
悬崖	-14817
悲凉	-14818
悻悻	-14819
情义	-14820
情事	-14821
惊觉	-14822
惊险	-14823
惟有	-14824
惨遭	-14825
惩戒	-14826
想了	-14827
想做	-14828
想吃	-14829
愁眉	-14830
愈多	-14831
愈来	-14832
意乱	-14833
意示	-14834
意舍	-14835
慌张	-14836
慧剑	-14837
懂了	-14838
懊悔	-14839
成个	-14840
成人	-14841
我到	-14842
我原	-14843
我手	-14844
我猜	-14845
我身	-14846
我陪	-14847
戒指	-14848
或为	-14849
戾气	-14850
房屋	-14851
所及	-14852
所得	-14853
所扮	-14854
所持	-14855
所赐	-14856
手提	-14857
手辣	-14858
才不	-14859
扑地	-14860
打她	-14861
打尽	-14862
打斗	-14863
打来	-14864
打落	-14865
打造	-14866
执拗	-14867
执掌	-14868
扫兴	-14869
扭动	-14870
扶持	-14871
批评	-14872
抄起	-14873
把你	-14874
把兄	-14875
把弟	-14876
投机	-14877
投靠	-14878
折骨	-14879
抱憾	-14880
抽去	-14881
担保	-14882
担当	-14883
拉了	-14884
拉她	-14885
拉得	-14886
拉起	-14887
拍击	-14888
拍去	-14889
拍来	-14890
拍马	-14891
拒却	-14892
招了	-14893
招展	-14894
拜访	-14895
拜谢	-14896
拥戴	-14897
拨出	-14898
指引	-14899
指证	-14900
按辔	-14901
挡开	-14902
挥洒	-14903
挥舞	-14904
挺撞	-14905
捕捉	-14906
掀开	-14907
掀起	-14908
掌底	-14909
排山	-14910
探问	-14911
接口	-14912
接战	-14913
掩埋	-14914
掩饰	-14915
提刀	-14916
提心	-14917
揭破	-14918
揭谛	-14919
摇动	-14920
摔落	-14921
摸索	-14922
撞死	-14923
擂鼓	-14924
收兵	-14925
收势	-14926
收掌	-14927
收敛	-14928
收藏	-14929
改口	-14930
放他	-14931
放脱	-14932
敌方	-14933
敏捷	-14934
救的	-14935
教了	-14936
教她	-14937
敬若	-14938
数处	-14939
斗殴	-14940
斛斗	-14941
斜劈	-14942
斜目	-14943
斥责	-14944
斥道	-14945
斧头	-14946
新法	-14947
方才	-14948
方有	-14949
方知	-14950
施令	-14951
施救	-14952
施治	-14953
旗杆	-14954
无妨	-14955
无暇	-14956
无缝	-14957
无虑	-14958
无误	-14959
无路	-14960
日日	-14961
早有	-14962
映到	-14963
映照	-14964
是客	-14965
是指	-14966
是来	-14967
晓得	-14968
智取	-14969
智计	-14970
暮色	-14971
更衣	-14972
更非	-14973
曾有	-14974
最怕	-14975
最恨	-14976
最擅	-14977
月锥	-14978
月饼	-14979
有仇	-14980
有伤	-14981
有名	-14982
有味	-14983
有幸	-14984
有志	-14985
有悔	-14986
有损	-14987
有旨	-14988
有生	-14989
有病	-14990
有知	-14991
有神	-14992
木材	-14993
木柱	-14994
木箱	-14995
木鱼	-14996
未了	-14997
未定	-14998
未干	-14999
本地	-15000
机智	-15001
杀气	-15002
杀过	-15003
李春	-15004
来打	-15005
来斤	-15006
来此	-15007
极易	-15008
林间	-15009
枝玉	-15010
枯草	-15011
查知	-15012
柱上	-15013
树木	-15014
桂树	-15015
梁子	-15016
梅竹	-15017
棺木	-15018
横砍	-15019
次序	-15020
次晨	-15021
欢乐	-15022
欲呕	-15023
歌声	-15024
止步	-15025
正气	-15026
正邪	-15027
步履	-15028
步行	-15029
武师	-15030
武技	-15031
武经	-15032
死伤	-15033
死灰	-15034
段某	-15035
母的	-15036
母鸡	-15037
每逢	-15038
毒液	-15039
毒貂	-15040
比丘	-15041
比较	-15042
永无	-15043
求婚	-15044
池穴	-15045
沉迷	-15046
没将	-15047
河北	-15048
油头	-15049
法力	-15050
泣道	-15051
泥中	-15052
泥沙	-15053
泥泞	-15054
注明	-15055
洞口	-15056
浇菜	-15057
浑浑	-15058
浓痰	-15059
浸在	-15060
涌入	-15061
涌身	-15062
涵养	-15063
深涧	-15064
清净	-15065
清理	-15066
清茶	-15067
渐去	-15068
渐行	-15069
温暖	-15070
温软	-15071
温雅	-15072
游荡	-15073
湖面	-15074
滑稽	-15075
满嘴	-15076
满路	-15077
炕底	-15078
炷香	-15079
烟雾	-15080
焉有	-15081
焕发	-15082
焚烧	-15083
焦虑	-15084
照做	-15085
照射	-15086
熊熊	-15087
熟的	-15088
爱怜	-15089
爱戴	-15090
爱民	-15091
爷的	-15092
物品	-15093
牵过	-15094
特来	-15095
犹在	-15096
狂喷	-15097
狐狸	-15098
狡猾	-15099
独往	-15100
献上	-15101
玄天	-15102
玄鸣	-15103
王公	-15104
玩耍	-15105
琅擐	-15106
理的	-15107
理论	-15108
琵琶	-15109
瓦瓮	-15110
瓶子	-15111
甚佳	-15112
甚奇	-15113
甚重	-15114
甜的	-15115
生光	-15116
用些	-15117
用来	-15118
甫歇	-15119
甫毕	-15120
由得	-15121
由我	-15122
男仆	-15123
画像	-15124
疑云	-15125
疾刺	-15126
疾走	-15127
痛骂	-15128
瘦骨	-15129
瘫痪	-15130
白光	-15131
白地	-15132
白纸	-15133
百计	-15134
的乱	-15135
的伤	-15136
的外	-15137
的心	-15138
的指	-15139
的连	-15140
的金	-15141
的飞	-15142
的高	-15143
皆非	-15144
皈依	-15145
皮室	-15146
皮毛	-15147
皮鞭	-15148
盒中	-15149
盘桓	-15150
盛情	-15151
目眩	-15152
盲了	-15153
直冒	-15154
直冲	-15155
直进	-15156
相劝	-15157
相报	-15158
相爱	-15159
相连	-15160
盼你	-15161
看着	-15162
真乃	-15163
真如	-15164
真诚	-15165
眨眼	-15166
眼力	-15167
眼明	-15168
眼皮	-15169
着想	-15170
着着	-15171
瞎说	-15172
瞧那	-15173
瞪着	-15174
矮身	-15175
砍他	-15176
破空	-15177
破裂	-15178
砸死	-15179
碗碟	-15180
示知	-15181
示警	-15182
祖禹	-15183
神驰	-15184
禅寺	-15185
福地	-15186
福气	-15187
离奇	-15188
秀才	-15189
私下	-15190
私生	-15191
私通	-15192
秃秃	-15193
秘要	-15194
移开	-15195
移步	-15196
秽语	-15197
稍候	-15198
稻草	-15199
穴中	-15200
空地	-15201
穿出	-15202
突施	-15203
突袭	-15204
窃喜	-15205
窥探	-15206
立功	-15207
立止	-15208
竟在	-15209
童颜	-15210
端庄	-15211
竹棒	-15212
笑意	-15213
笔迹	-15214
第八	-15215
签条	-15216
简慢	-15217
算在	-15218
算来	-15219
管得	-15220
管用	-15221
粉嫩	-15222
粉末	-15223
精于	-15224
精研	-15225
精雅	-15226
系着	-15227
素所	-15228
素无	-15229
累累	-15230
纯阳	-15231
纳罕	-15232
纵出	-15233
纵是	-15234
线路	-15235
练越	-15236
经验	-15237
绑住	-15238
结怨	-15239
结舌	-15240
绕道	-15241
绘画	-15242
绝俗	-15243
绸包	-15244
绸衫	-15245
绿线	-15246
缓带	-15247
罗万	-15248
罗唣	-15249
罗王	-15250
美事	-15251
羚羊	-15252
羞愧	-15253
翻转	-15254
老丈	-15255
老幼	-15256
老翁	-15257
老远	-15258
者也	-15259
耆宿	-15260
而发	-15261
而笑	-15262
而终	-15263
而进	-15264
耐心	-15265
耸立	-15266
耻笑	-15267
肆无	-15268
肉跳	-15269
肋下	-15270
肝胆	-15271
肢体	-15272
肥料	-15273
肮脏	-15274
胆怯	-15275
能在	-15276
能干	-15277
脉息	-15278
脑浆	-15279
脑筋	-15280
脚的	-15281
腰带	-15282
膝头	-15283
臂骨	-15284
自信	-15285
自取	-15286
自得	-15287
自恃	-15288
自顾	-15289
臭的	-15290
至乐	-15291
舍下	-15292
艰险	-15293
艳羡	-15294
花厅	-15295
花瓣	-15296
芳心	-15297
苍茫	-15298
苏轼	-15299
若轻	-15300
茶碗	-15301
荆棘	-15302
草席	-15303
草木	-15304
草莽	-15305
荒僻	-15306
荒唐	-15307
荣幸	-15308
萧老	-15309
落后	-15310
藏私	-15311
虎口	-15312
虎虎	-15313
虚张	-15314
虚招	-15315
虚脱	-15316
虚言	-15317
虽死	-15318
虽见	-15319
虽觉	-15320
蛤蟆	-15321
蜡烛	-15322
融雪	-15323
血仇	-15324
行侠	-15325
行功	-15326
行好	-15327
衣囊	-15328
衣饰	-15329
袒护	-15330
被缚	-15331
装有	-15332
裹在	-15333
褴褛	-15334
要使	-15335
要旨	-15336
要瞧	-15337
覆辙	-15338
见长	-15339
觅地	-15340
解除	-15341
言笑	-15342
言而	-15343
言行	-15344
认穴	-15345
讯号	-15346
记忆	-15347
诀窍	-15348
话虽	-15349
该打	-15350
详细	-15351
请罪	-15352
诸多	-15353
诺言	-15354
调匀	-15355
谈谈	-15356
谈起	-15357
谋杀	-15358
谦逊	-15359
谨慎	-15360
豹子	-15361
财宝	-15362
责打	-15363
贪多	-15364
贫僧	-15365
贵国	-15366
贵客	-15367
贻患	-15368
赌酒	-15369
赐教	-15370
赤手	-15371
赤裸	-15372
越长	-15373
跃欲	-15374
跌在	-15375
路途	-15376
踏着	-15377
蹑足	-15378
身露	-15379
躲过	-15380
软倒	-15381
轻了	-15382
轻叹	-15383
轻拍	-15384
轻挥	-15385
辉煌	-15386
辨认	-15387
边界	-15388
迄今	-15389
过于	-15390
过多	-15391
过望	-15392
过海	-15393
还俗	-15394
还敢	-15395
还更	-15396
还望	-15397
还真	-15398
这五	-15399
这份	-15400
这六	-15401
这块	-15402
这声	-15403
这头	-15404
这套	-15405
这批	-15406
进宫	-15407
远走	-15408
违背	-15409
迟钝	-15410
追兵	-15411
送上	-15412
透顶	-15413
逐步	-15414
递出	-15415
递给	-15416
通向	-15417
造反	-15418
造福	-15419
遇险	-15420
遍野	-15421
道家	-15422
道谢	-15423
遗书	-15424
遗命	-15425
遗文	-15426
遗训	-15427
遣人	-15428
遥望	-15429
遥遥	-15430
遵行	-15431
那大	-15432
那狼	-15433
那般	-15434
都曾	-15435
都没	-15436
酒喝	-15437
酒坛	-15438
酒瘾	-15439
酒肉	-15440
酣斗	-15441
采烈	-15442
释重	-15443
里半	-15444
重视	-15445
重阳	-15446
野岭	-15447
钢盾	-15448
钢针	-15449
钦仰	-15450
铁棍	-15451
铁铲	-15452
锋利	-15453
锦垫	-15454
镇静	-15455
镜中	-15456
长久	-15457
长了	-15458
门后	-15459
门槛	-15460
闲话	-15461
闲雅	-15462
闹得	-15463
阅历	-15464
附和	-15465
陡生	-15466
险恶	-15467
随声	-15468
随缘	-15469
难为	-15470
难搔	-15471
难行	-15472
雄狮	-15473
震开	-15474
霍地	-15475
青红	-15476
静候	-15477
静听	-15478
靠山	-15479
靠近	-15480
面容	-15481
鞋袜	-15482
鞍上	-15483
顶撞	-15484
项颈	-15485
顺口	-15486
顾全	-15487
顾盼	-15488
颂声	-15489
颂扬	-15490
额上	-15491
飘出	-15492
飘动	-15493
飘开	-15494
飘风	-15495
飞开	-15496
飞溅	-15497
饭后	-15498
饮水	-15499
饿死	-15500
香火	-15501
马后	-15502
驴车	-15503
骨气	-15504
高低	-15505
高烧	-15506
高飞	-15507
鲁莽	-15508
鲜艳	-15509
鸡鸭	-15510
鸳鸯	-15511
麻麻	-15512
黄河	-15513
黑马	-15514
黑鹫	-15515
鼓乐	-15516
鼓掌	-15517
齐断	-15518
龙潭	-15519
龟息	-15520
▁一日	-15521
▁一来	-15522
▁不对	-15523
▁二女	-15524
▁于是	-15525
▁五人	-15526
▁他听	-15527
▁他要	-15528
▁但那	-15529
▁你先	-15530
▁你别	-15531
▁你有	-15532
▁其中	-15533
▁到了	-15534
▁叛军	-15535
▁咱俩	-15536
▁哎唷	-15537
▁哼哼	-15538
▁回目	-15539
▁她们	-15540
▁孩子	-15541
▁幽草	-15542
▁当然	-15543
▁忽听	-15544
▁想来	-15545
▁我一	-15546
▁我叫	-15547
▁我瞧	-15548
▁我见	-15549
▁本相	-15550
▁正明	-15551
▁每一	-15552
▁游氏	-15553
▁玄苦	-15554
▁眼看	-15555
▁竹剑	-15556
▁老夫	-15557
▁萧兄	-15558
▁说到	-15559
▁说道	-15560
▁这话	-15561
▁陛下	-15562
▁须得	-15563
一下子	-15564
一个月	-15565
一人的	-15566
一刀砍	-15567
一双眼	-15568
一口咬	-15569
一只大	-15570
一只手	-15571
一块儿	-15572
一定神	-15573
一忽儿	-15574
一条条	-15575
三匹马	-15576
三师哥	-15577
三笑散	-15578
上一条	-15579
上一阵	-15580
上前来	-15581
上十倍	-15582
上山来	-15583
上岸去	-15584
上德帝	-15585
上来了	-15586
下头来	-15587
下山去	-15588
不久便	-15589
不会的	-15590
不停的	-15591
不停蹄	-15592
不再是	-15593
不出声	-15594
不出手	-15595
不可当	-15596
不堪言	-15597
不好了	-15598
不容辞	-15599
不愿意	-15600
不打话	-15601
不敢有	-15602
不敢稍	-15603
不痛快	-15604
不知我	-15605
不起身	-15606
丐帮是	-15607
丛之中	-15608
两人一	-15609
两件事	-15610
两声响	-15611
中了他	-15612
为了得	-15613
为兄弟	-15614
乃是以	-15615
乘人之	-15616
也不便	-15617
也不吃	-15618
也不回	-15619
也不易	-15620
也不许	-15621
也似的	-15622
也十分	-15623
也算是	-15624
也还不	-15625
也都是	-15626
了一名	-15627
了一段	-15628
了一番	-15629
了一般	-15630
了两眼	-15631
了几次	-15632
了大半	-15633
二十斤	-15634
于武学	-15635
五千两	-15636
五台山	-15637
人个个	-15638
人心魄	-15639
从此不	-15640
从袖中	-15641
他不敢	-15642
他们是	-15643
他们来	-15644
他双足	-15645
他始终	-15646
他定是	-15647
他师父	-15648
他手掌	-15649
他生平	-15650
他的当	-15651
他说到	-15652
以一招	-15653
以真气	-15654
任由她	-15655
伏牛派	-15656
传入了	-15657
伤不到	-15658
伸出一	-15659
伸右手	-15660
伸手到	-15661
但一来	-15662
但此刻	-15663
但终于	-15664
但终究	-15665
但萧峰	-15666
低声向	-15667
何必多	-15668
佛像前	-15669
你一直	-15670
你不妨	-15671
你二人	-15672
你今日	-15673
你们去	-15674
你们要	-15675
你倘若	-15676
你几时	-15677
你出手	-15678
你和我	-15679
你姊姊	-15680
你就算	-15681
你尽管	-15682
你是鬼	-15683
你终于	-15684
你说我	-15685
你这位	-15686
你这是	-15687
你难道	-15688
便向他	-15689
便将他	-15690
便是他	-15691
便是那	-15692
便知是	-15693
倒似是	-15694
免得她	-15695
入地道	-15696
全不知	-15697
全身骨	-15698
公主的	-15699
兵刃上	-15700
其中有	-15701
冲霄洞	-15702
决不容	-15703
冷冷的	-15704
凄然道	-15705
几个月	-15706
凭你这	-15707
出一柄	-15708
出来时	-15709
出现了	-15710
出身来	-15711
刀祁六	-15712
刘竹庄	-15713
别无他	-15714
到了她	-15715
加上一	-15716
区岛主	-15717
十六州	-15718
十香迷	-15719
千余人	-15720
单季山	-15721
单家庄	-15722
单小山	-15723
单正道	-15724
却不料	-15725
却毫不	-15726
原来她	-15727
原来那	-15728
去找他	-15729
又或是	-15730
又来了	-15731
双手连	-15732
反正是	-15733
发出来	-15734
取过一	-15735
另一端	-15736
只听她	-15737
只是在	-15738
只看得	-15739
只道他	-15740
叫你去	-15741
叫化儿	-15742
可怜见	-15743
可是这	-15744
可有多	-15745
号角声	-15746
向南行	-15747
向左首	-15748
向来不	-15749
向身旁	-15750
听虚竹	-15751
和丐帮	-15752
和他们	-15753
和契丹	-15754
咱两个	-15755
咱们再	-15756
咱们去	-15757
咱们快	-15758
哪里去	-15759
喜欢我	-15760
嗓子道	-15761
回复到	-15762
回头道	-15763
圆寂了	-15764
在一座	-15765
在下的	-15766
在下面	-15767
在人前	-15768
在寺中	-15769
在石壁	-15770
在背后	-15771
在荒山	-15772
在衣袖	-15773
在身旁	-15774
在阿朱	-15775
多一分	-15776
多识广	-15777
大了三	-15778
大好了	-15779
大姑娘	-15780
大恶极	-15781
大理城	-15782
大理的	-15783
天晚上	-15784
天鹅肉	-15785
太师叔	-15786
女人的	-15787
女娃儿	-15788
她手腕	-15789
她父亲	-15790
她穴道	-15791
她表哥	-15792
好厉害	-15793
好孩子	-15794
如泉涌	-15795
如闪电	-15796
姓乔的	-15797
娶我为	-15798
婢子们	-15799
字九打	-15800
孤陋寡	-15801
孤零零	-15802
安慰她	-15803
容子矩	-15804
对乔峰	-15805
对准他	-15806
对我们	-15807
对是错	-15808
对这位	-15809
寻到了	-15810
将二人	-15811
将内力	-15812
将开来	-15813
将性命	-15814
将脑袋	-15815
尊夫人	-15816
小妞儿	-15817
小师娘	-15818
小沙弥	-15819
尖声道	-15820
就好了	-15821
就这么	-15822
山人参	-15823
山玩水	-15824
岂不知	-15825
峰造极	-15826
差了一	-15827
已被人	-15828
布袋中	-15829
师姊妹	-15830
师弟的	-15831
帮主的	-15832
强笑道	-15833
当下便	-15834
当下又	-15835
当帮主	-15836
当年在	-15837
当时我	-15838
往自己	-15839
待见他	-15840
得什么	-15841
得罪我	-15842
得通红	-15843
御花园	-15844
心中又	-15845
心中均	-15846
志室穴	-15847
怎么还	-15848
总不免	-15849
恶人的	-15850
惭形秽	-15851
想到她	-15852
想知道	-15853
意舍穴	-15854
我一命	-15855
我一掌	-15856
我不好	-15857
我契丹	-15858
我就是	-15859
我就算	-15860
我怎会	-15861
我早就	-15862
我早知	-15863
我此刻	-15864
我武功	-15865
我立刻	-15866
我答允	-15867
我自当	-15868
我自是	-15869
我要你	-15870
我说话	-15871
我身边	-15872
我还有	-15873
所未见	-15874
手掌中	-15875
才渐渐	-15876
找得到	-15877
抱着我	-15878
招招手	-15879
招驸马	-15880
捉了来	-15881
掌力道	-15882
掳了去	-15883
收你为	-15884
放在心	-15885
放开他	-15886
教你的	-15887
数一数	-15888
数十万	-15889
整日价	-15890
料得到	-15891
料理了	-15892
新主人	-15893
方丈和	-15894
无所不	-15895
早一日	-15896
是不敢	-15897
是何等	-15898
是有人	-15899
普渡寺	-15900
曲折折	-15901
更不多	-15902
替自己	-15903
有一门	-15904
有些人	-15905
有余悸	-15906
有几人	-15907
朱天部	-15908
杀了她	-15909
树丛后	-15910
梅竹马	-15911
棋盘的	-15912
歉然道	-15913
止观寺	-15914
正中他	-15915
正是他	-15916
武功又	-15917
死不辞	-15918
死和尚	-15919
没功夫	-15920
泄露了	-15921
洋洋的	-15922
浑不知	-15923
溜溜的	-15924
滩鲜血	-15925
煞风景	-15926
狗男女	-15927
猜得到	-15928
玉虚观	-15929
王安石	-15930
理会处	-15931
甘心受	-15932
生出一	-15933
画中的	-15934
留下的	-15935
百余名	-15936
的一位	-15937
的下属	-15938
的事了	-15939
的凶手	-15940
的勾当	-15941
的号令	-15942
的名声	-15943
的向他	-15944
的坐着	-15945
的大罪	-15946
的姓名	-15947
的姿式	-15948
的容貌	-15949
的形貌	-15950
的徒儿	-15951
的是一	-15952
的毒药	-15953
的深谷	-15954
的罪名	-15955
的脸色	-15956
的衣袖	-15957
的讯息	-15958
的身手	-15959
的高僧	-15960
皇太子	-15961
目光都	-15962
看到他	-15963
看看我	-15964
眼色中	-15965
着一只	-15966
着一对	-15967
着出去	-15968
睡不着	-15969
瞧出了	-15970
知他是	-15971
石室中	-15972
石阶上	-15973
破人亡	-15974
破月锥	-15975
碰到了	-15976
磕几个	-15977
笑了笑	-15978
笑歪了	-15979
笔直的	-15980
第一位	-15981
第一步	-15982
第二层	-15983
第二日	-15984
第二步	-15985
筋疲力	-15986
简直是	-15987
红烧肉	-15988
终究会	-15989
给他听	-15990
给你看	-15991
美人脸	-15992
老哥哥	-15993
老子的	-15994
而不是	-15995
而后快	-15996
胆小鬼	-15997
胜败心	-15998
脚步轻	-15999
脸一沉	-16000
腻声道	-16001
自不能	-16002
自以为	-16003
自称为	-16004
自管自	-16005
苗姑娘	-16006
范祖禹	-16007
荡江湖	-16008
菜园子	-16009
落了空	-16010
葛光佩	-16011
蔡庆图	-16012
蛮不讲	-16013
被萧峰	-16014
装假死	-16015
要你来	-16016
要我去	-16017
见众人	-16018
见到那	-16019
见对方	-16020
见情势	-16021
见这人	-16022
记耳光	-16023
说得很	-16024
说甚麽	-16025
说的话	-16026
诸帮众	-16027
走出一	-16028
赵煦道	-16029
越练越	-16030
越走越	-16031
跃跃欲	-16032
跛一拐	-16033
身上马	-16034
身露体	-16035
躲到了	-16036
软绵绵	-16037
过一丝	-16038
过什么	-16039
过去了	-16040
过大爷	-16041
运内劲	-16042
还不到	-16043
还不如	-16044
还了一	-16045
还有一	-16046
这一场	-16047
这一声	-16048
,	-16049
▁	-16050
。	-16051
不	-16052
一	-16053
的	-16054
“	-16055
”	-16056
是	-16057
道	-16058
了	-16059
:	-16060
.	-16061
人	-16062
我	-16063
你	-16064
这	-16065
他	-16066
大	-16067
来	-16068
之	-16069
说	-16070
中	-16071
?	-16072
在	-16073
得	-16074
下	-16075
上	-16076
子	-16077
有	-16078
那	-16079
到	-16080
段	-16081
也	-16082
手	-16083
去	-16084
便	-16085
出	-16086
心	-16087
见	-16088
只	-16089
个	-16090
么	-16091
声	-16092
自	-16093
身	-16094
然	-16095
过	-16096
无	-16097
好	-16098
时	-16099
要	-16100
誉	-16101
又	-16102
头	-16103
着	-16104
她	-16105
老	-16106
!	-16107
、	-16108
峰	-16109
想	-16110
知	-16111
向	-16112
听	-16113
小	-16114
如	-16115
可	-16116
当	-16117
为	-16118
将	-16119
已	-16120
师	-16121
阿	-16122
此	-16123
却	-16124
起	-16125
什	-16126
和	-16127
们	-16128
功	-16129
后	-16130
两	-16131
而	-16132
但	-16133
生	-16134
都	-16135
神	-16136
叫	-16137
容	-16138
王	-16139
天	-16140
笑	-16141
三	-16142
正	-16143
萧	-16144
以	-16145
十	-16146
气	-16147
事	-16148
地	-16149
死	-16150
女	-16151
少	-16152
武	-16153
多	-16154
口	-16155
力	-16156
能	-16157
前	-16158
对	-16159
竹	-16160
虚	-16161
相	-16162
慕	-16163
眼	-16164
会	-16165
没	-16166
夫	-16167
何	-16168
还	-16169
主	-16170
再	-16171
门	-16172
里	-16173
儿	-16174
’	-16175
二	-16176
‘	-16177
己	-16178
难	-16179
话	-16180
帮	-16181
就	-16182
住	-16183
打	-16184
长	-16185
掌	-16186
清	-16187
间	-16188
马	-16189
家	-16190
从	-16191
公	-16192
弟	-16193
真	-16194
年	-16195
走	-16196
法	-16197
意	-16198
给	-16199
名	-16200
四	-16201
所	-16202
位	-16203
几	-16204
乔	-16205
日	-16206
语	-16207
僧	-16208
山	-16209
杀	-16210
林	-16211
跟	-16212
高	-16213
娘	-16214
父	-16215
开	-16216
面	-16217
若	-16218
众	-16219
点	-16220
行	-16221
于	-16222
本	-16223
朱	-16224
同	-16225
剑	-16226
回	-16227
动	-16228
指	-16229
等	-16230
定	-16231
瞧	-16232
姑	-16233
南	-16234
明	-16235
内	-16236
理	-16237
处	-16238
脸	-16239
快	-16240
看	-16241
全	-16242
成	-16243
紫	-16244
才	-16245
方	-16246
复	-16247
木	-16248
怎	-16249
白	-16250
兄	-16251
倒	-16252
极	-16253
半	-16254
先	-16255
万	-16256
步	-16257
双	-16258
即	-16259
命	-16260
问	-16261
些	-16262
玄	-16263
分	-16264
微	-16265
外	-16266
惊	-16267
用	-16268
情	-16269
星	-16270
入	-16271
色	-16272
伤	-16273
轻	-16274
非	-16275
言	-16276
毒	-16277
左	-16278
转	-16279
光	-16280
原	-16281
数	-16282
哥	-16283
连	-16284
刀	-16285
石	-16286
实	-16287
更	-16288
派	-16289
灵	-16290
发	-16291
虽	-16292
西	-16293
放	-16294
觉	-16295
钟	-16296
般	-16297
咱	-16298
害	-16299
嫣	-16300
百	-16301
风	-16302
太	-16303
其	-16304
重	-16305
八	-16306
字	-16307
恶	-16308
寺	-16309
怕	-16310
爹	-16311
甚	-16312
喝	-16313
使	-16314
招	-16315
竟	-16316
啊	-16317
必	-16318
国	-16319
做	-16320
与	-16321
谁	-16322
喜	-16323
未	-16324
第	-16325
亲	-16326
童	-16327
智	-16328
姊	-16329
别	-16330
远	-16331
伸	-16332
水	-16333
突	-16334
婉	-16335
怪	-16336
淳	-16337
敢	-16338
海	-16339
作	-16340
请	-16341
越	-16342
边	-16343
进	-16344
旁	-16345
刻	-16346
丹	-16347
汉	-16348
游	-16349
右	-16350
似	-16351
包	-16352
样	-16353
急	-16354
尽	-16355
干	-16356
立	-16357
暗	-16358
余	-16359
姥	-16360
世	-16361
敌	-16362
音	-16363
受	-16364
深	-16365
解	-16366
兵	-16367
经	-16368
性	-16369
呼	-16370
保	-16371
六	-16372
吃	-16373
奇	-16374
秋	-16375
学	-16376
丐	-16377
各	-16378
足	-16379
今	-16380
摩	-16381
忽	-16382
仇	-16383
丈	-16384
句	-16385
算	-16386
直	-16387
皇	-16388
衣	-16389
妈	-16390
帝	-16391
火	-16392
怒	-16393
苦	-16394
酒	-16395
平	-16396
路	-16397
尚	-16398
既	-16399
五	-16400
救	-16401
由	-16402
比	-16403
花	-16404
传	-16405
响	-16406
待	-16407
群	-16408
随	-16409
七	-16410
哈	-16411
铁	-16412
决	-16413
红	-16414
背	-16415
脚	-16416
思	-16417
并	-16418
空	-16419
雄	-16420
黑	-16421
加	-16422
鸠	-16423
青	-16424
条	-16425
穴	-16426
势	-16427
满	-16428
坦	-16429
落	-16430
婆	-16431
抓	-16432
早	-16433
次	-16434
乱	-16435
须	-16436
反	-16437
目	-16438
血	-16439
许	-16440
取	-16441
忙	-16442
倘	-16443
宿	-16444
望	-16445
千	-16446
被	-16447
击	-16448
奔	-16449
站	-16450
片	-16451
信	-16452
绝	-16453
关	-16454
断	-16455
鳄	-16456
丁	-16457
料	-16458
终	-16459
者	-16460
爷	-16461
摇	-16462
强	-16463
带	-16464
物	-16465
寻	-16466
提	-16467
春	-16468
东	-16469
慢	-16470
飞	-16471
接	-16472
及	-16473
契	-16474
答	-16475
客	-16476
居	-16477
最	-16478
登	-16479
书	-16480
药	-16481
因	-16482
姓	-16483
念	-16484
痛	-16485
胸	-16486
哪	-16487
坐	-16488
妹	-16489
冷	-16490
拍	-16491
斗	-16492
低	-16493
齐	-16494
易	-16495
延	-16496
吧	-16497
树	-16498
错	-16499
湖	-16500
仍	-16501
士	-16502
往	-16503
报	-16504
种	-16505
波	-16506
军	-16507
让	-16508
令	-16509
服	-16510
求	-16511
至	-16512
底	-16513
紧	-16514
苏	-16515
变	-16516
云	-16517
胜	-16518
交	-16519
阵	-16520
破	-16521
练	-16522
礼	-16523
厉	-16524
很	-16525
异	-16526
息	-16527
英	-16528
诸	-16529
夏	-16530
总	-16531
感	-16532
宫	-16533
首	-16534
形	-16535
江	-16536
乌	-16537
啦	-16538
岂	-16539
闪	-16540
碧	-16541
施	-16542
宝	-16543
活	-16544
骂	-16545
胡	-16546
佛	-16547
张	-16548
罪	-16549
辽	-16550
庆	-16551
隐	-16552
黄	-16553
量	-16554
则	-16555
臂	-16556
北	-16557
拿	-16558
氏	-16559
像	-16560
美	-16561
安	-16562
缓	-16563
失	-16564
应	-16565
洞	-16566
辈	-16567
久	-16568
拳	-16569
纵	-16570
肯	-16571
冲	-16572
屋	-16573
找	-16574
显	-16575
果	-16576
称	-16577
计	-16578
露	-16579
把	-16580
退	-16581
均	-16582
化	-16583
件	-16584
常	-16585
教	-16586
送	-16587
流	-16588
近	-16589
金	-16590
每	-16591
豪	-16592
巴	-16593
体	-16594
阳	-16595
单	-16596
离	-16597
险	-16598
逃	-16599
欢	-16600
罢	-16601
义	-16602
爱	-16603
耳	-16604
渐	-16605
臣	-16606
司	-16607
脉	-16608
免	-16609
郎	-16610
庄	-16611
怀	-16612
乎	-16613
跃	-16614
叹	-16615
通	-16616
拉	-16617
拜	-16618
慈	-16619
眉	-16620
九	-16621
劲	-16622
男	-16623
谷	-16624
除	-16625
伯	-16626
刚	-16627
愿	-16628
母	-16629
块	-16630
骨	-16631
城	-16632
棋	-16633
宋	-16634
运	-16635
射	-16636
根	-16637
妙	-16638
推	-16639
罗	-16640
脱	-16641
止	-16642
貌	-16643
避	-16644
部	-16645
合	-16646
另	-16647
精	-16648
凶	-16649
举	-16650
徒	-16651
追	-16652
沉	-16653
孩	-16654
官	-16655
李	-16656
禁	-16657
叶	-16658
月	-16659
楚	-16660
挥	-16661
现	-16662
脑	-16663
抱	-16664
结	-16665
领	-16666
且	-16667
玉	-16668
袍	-16669
否	-16670
袋	-16671
细	-16672
抢	-16673
箭	-16674
刺	-16675
闻	-16676
跳	-16677
丝	-16678
律	-16679
岁	-16680
肩	-16681
医	-16682
论	-16683
机	-16684
壁	-16685
认	-16686
鬼	-16687
敬	-16688
毫	-16689
薛	-16690
颇	-16691
忍	-16692
曾	-16693
纷	-16694
观	-16695
撞	-16696
故	-16697
表	-16698
仙	-16699
该	-16700
嘴	-16701
基	-16702
乘	-16703
假	-16704
留	-16705
记	-16706
河	-16707
图	-16708
晚	-16709
肉	-16710
谢	-16711
赶	-16712
华	-16713
古	-16714
吐	-16715
嘿	-16716
识	-16717
冰	-16718
乃	-16719
宗	-16720
收	-16721
攻	-16722
写	-16723
尊	-16724
横	-16725
战	-16726
聚	-16727
鹤	-16728
恩	-16729
装	-16730
番	-16731
疑	-16732
贵	-16733
号	-16734
尸	-16735
镇	-16736
呢	-16737
威	-16738
戒	-16739
钱	-16740
友	-16741
猛	-16742
穿	-16743
呆	-16744
管	-16745
候	-16746
土	-16747
欲	-16748
袖	-16749
幸	-16750
散	-16751
激	-16752
妇	-16753
孙	-16754
布	-16755
洪	-16756
贼	-16757
偷	-16758
端	-16759
镜	-16760
香	-16761
文	-16762
莫	-16763
影	-16764
碗	-16765
茶	-16766
谭	-16767
刃	-16768
叔	-16769
堂	-16770
房	-16771
治	-16772
赵	-16773
斜	-16774
阴	-16775
吗	-16776
弹	-16777
杖	-16778
偏	-16779
骑	-16780
哼	-16781
始	-16782
狠	-16783
或	-16784
皮	-16785
腿	-16786
悲	-16787
扑	-16788
翻	-16789
龙	-16790
咬	-16791
属	-16792
祖	-16793
软	-16794
凝	-16795
室	-16796
草	-16797
嗤	-16798
伙	-16799
恨	-16800
模	-16801
停	-16802
睛	-16803
视	-16804
川	-16805
确	-16806
股	-16807
遇	-16808
飘	-16809
吓	-16810
摸	-16811
顶	-16812
修	-16813
适	-16814
哭	-16815
耶	-16816
折	-16817
钢	-16818
厅	-16819
恭	-16820
约	-16821
摔	-16822
松	-16823
究	-16824
败	-16825
伏	-16826
依	-16827
照	-16828
盘	-16829
顾	-16830
封	-16831
格	-16832
狗	-16833
良	-16834
院	-16835
鼻	-16836
吸	-16837
烧	-16838
角	-16839
座	-16840
鼎	-16841
场	-16842
归	-16843
致	-16844
虎	-16845
震	-16846
侧	-16847
团	-16848
惜	-16849
迷	-16850
邓	-16851
阁	-16852
护	-16853
任	-16854
助	-16855
淡	-16856
守	-16857
泪	-16858
衫	-16859
柔	-16860
持	-16861
热	-16862
蛇	-16863
技	-16864
秦	-16865
藏	-16866
雪	-16867
参	-16868
哟	-16869
腰	-16870
德	-16871
殿	-16872
画	-16873
完	-16874
怔	-16875
挡	-16876
朝	-16877
跪	-16878
唉	-16879
寒	-16880
逼	-16881
吴	-16882
密	-16883
府	-16884
引	-16885
柄	-16886
贤	-16887
鲜	-16888
代	-16889
危	-16890
吟	-16891
玩	-16892
纪	-16893
缘	-16894
擒	-16895
凌	-16896
滚	-16897
胆	-16898
颤	-16899
份	-16900
兴	-16901
厚	-16902
朋	-16903
笔	-16904
顺	-16905
博	-16906
投	-16907
鹫	-16908
临	-16909
切	-16910
尖	-16911
消	-16912
架	-16913
磕	-16914
麻	-16915
冠	-16916
崖	-16917
饭	-16918
夜	-16919
板	-16920
短	-16921
初	-16922
素	-16923
试	-16924
制	-16925
妻	-16926
寂	-16927
局	-16928
挺	-16929
绿	-16930
负	-16931
疾	-16932
躲	-16933
亦	-16934
枯	-16935
盼	-16936
乐	-16937
悄	-16938
枝	-16939
鞭	-16940
猜	-16941
告	-16942
惨	-16943
甘	-16944
陪	-16945
丑	-16946
围	-16947
允	-16948
周	-16949
恼	-16950
怨	-16951
改	-16952
砍	-16953
臭	-16954
踏	-16955
器	-16956
抬	-16957
秘	-16958
符	-16959
骗	-16960
徐	-16961
规	-16962
遥	-16963
讯	-16964
;	-16965
严	-16966
荣	-16967
况	-16968
崔	-16969
静	-16970
食	-16971
升	-16972
差	-16973
穆	-16974
御	-16975
牛	-16976
执	-16977
粗	-16978
范	-16979
驰	-16980
净	-16981
历	-16982
嗯	-16983
尺	-16984
忘	-16985
珠	-16986
矮	-16987
腕	-16988
顿	-16989
拔	-16990
犯	-16991
砰	-16992
荡	-16993
划	-16994
善	-16995
夺	-16996
缩	-16997
亮	-16998
墙	-16999
掷	-17000
棉	-17001
霎	-17002
恐	-17003
慧	-17004
抵	-17005
梦	-17006
际	-17007
圆	-17008
鼓	-17009
休	-17010
冶	-17011
探	-17012
君	-17013
筋	-17014
泉	-17015
索	-17016
乾	-17017
仁	-17018
插	-17019
迟	-17020
陈	-17021
睡	-17022
较	-17023
阮	-17024
迎	-17025
饶	-17026
争	-17027
剧	-17028
扮	-17029
腹	-17030
卷	-17031
咐	-17032
坏	-17033
巧	-17034
新	-17035
欺	-17036
钻	-17037
稍	-17038
贱	-17039
赞	-17040
元	-17041
农	-17042
凡	-17043
商	-17044
弄	-17045
弱	-17046
烦	-17047
示	-17048
颈	-17049
奉	-17050
州	-17051
店	-17052
扶	-17053
换	-17054
握	-17055
略	-17056
陀	-17057
卫	-17058
喂	-17059
境	-17060
岛	-17061
按	-17062
犹	-17063
皆	-17064
肚	-17065
奶	-17066
付	-17067
共	-17068
祸	-17069
谈	-17070
貂	-17071
醒	-17072
采	-17073
乖	-17074
仗	-17075
广	-17076
燕	-17077
爬	-17078
病	-17079
酸	-17080
垂	-17081
扬	-17082
担	-17083
麽	-17084
京	-17085
兀	-17086
利	-17087
套	-17088
彼	-17089
晃	-17090
碎	-17091
舵	-17092
踢	-17093
邪	-17094
具	-17095
冒	-17096
品	-17097
圣	-17098
够	-17099
晕	-17100
泥	-17101
硬	-17102
赫	-17103
逍	-17104
鸡	-17105
(	-17106
)	-17107
副	-17108
婢	-17109
泰	-17110
熟	-17111
侍	-17112
办	-17113
圈	-17114
尘	-17115
捉	-17116
灰	-17117
福	-17118
谋	-17119
叛	-17120
愧	-17121
永	-17122
状	-17123
褚	-17124
塞	-17125
惧	-17126
桌	-17127
狂	-17128
闭	-17129
养	-17130
劝	-17131
吹	-17132
展	-17133
幽	-17134
棒	-17135
误	-17136
仰	-17137
凉	-17138
朗	-17139
梅	-17140
碰	-17141
诚	-17142
丛	-17143
哑	-17144
奸	-17145
毛	-17146
袭	-17147
速	-17148
银	-17149
凛	-17150
挂	-17151
晌	-17152
曲	-17153
睁	-17154
矩	-17155
系	-17156
续	-17157
佩	-17158
匹	-17159
娇	-17160
舍	-17161
驾	-17162
吩	-17163
喉	-17164
懂	-17165
抗	-17166
替	-17167
移	-17168
缠	-17169
魂	-17170
存	-17171
杰	-17172
某	-17173
船	-17174
旧	-17175
查	-17176
烂	-17177
盗	-17178
线	-17179
透	-17180
侠	-17181
准	-17182
排	-17183
浑	-17184
糊	-17185
队	-17186
隔	-17187
井	-17188
屁	-17189
愤	-17190
株	-17191
涌	-17192
狼	-17193
遭	-17194
习	-17195
毕	-17196
注	-17197
盖	-17198
禀	-17199
粉	-17200
辞	-17201
途	-17202
凤	-17203
固	-17204
径	-17205
舌	-17206
躬	-17207
辰	-17208
遗	-17209
雁	-17210
劈	-17211
术	-17212
焦	-17213
辱	-17214
郁	-17215
颊	-17216
牵	-17217
环	-17218
窗	-17219
胖	-17220
薄	-17221
台	-17222
孔	-17223
察	-17224
汪	-17225
设	-17226
岳	-17227
劫	-17228
昆	-17229
枚	-17230
灭	-17231
电	-17232
蓦	-17233
防	-17234
颜	-17235
凭	-17236
扯	-17237
闹	-17238
摆	-17239
独	-17240
羊	-17241
膝	-17242
读	-17243
逐	-17244
野	-17245
铜	-17246
阻	-17247
掉	-17248
烟	-17249
穷	-17250
输	-17251
造	-17252
降	-17253
集	-17254
魔	-17255
宁	-17256
岩	-17257
拚	-17258
杯	-17259
残	-17260
节	-17261
遍	-17262
压	-17263
巨	-17264
帐	-17265
泄	-17266
混	-17267
糟	-17268
聪	-17269
倍	-17270
借	-17271
舞	-17272
蚕	-17273
讨	-17274
轮	-17275
饮	-17276
味	-17277
支	-17278
焰	-17279
牢	-17280
置	-17281
互	-17282
充	-17283
含	-17284
惶	-17285
灯	-17286
皱	-17287
累	-17288
菜	-17289
赴	-17290
迹	-17291
备	-17292
惭	-17293
率	-17294
私	-17295
责	-17296
怦	-17297
悔	-17298
挑	-17299
裂	-17300
议	-17301
丧	-17302
勇	-17303
敝	-17304
昏	-17305
羞	-17306
陡	-17307
亏	-17308
卓	-17309
抖	-17310
摘	-17311
罩	-17312
讲	-17313
调	-17314
跌	-17315
鱼	-17316
度	-17317
式	-17318
歇	-17319
牙	-17320
艺	-17321
跨	-17322
务	-17323
斩	-17324
楼	-17325
油	-17326
浅	-17327
营	-17328
贴	-17329
丽	-17330
匆	-17331
妃	-17332
孤	-17333
授	-17334
斧	-17335
民	-17336
渡	-17337
冤	-17338
劳	-17339
康	-17340
耐	-17341
虫	-17342
辩	-17343
达	-17344
针	-17345
陛	-17346
忠	-17347
托	-17348
拂	-17349
拦	-17350
蹄	-17351
雨	-17352
齿	-17353
丫	-17354
兰	-17355
唯	-17356
喇	-17357
堆	-17358
幼	-17359
戴	-17360
涂	-17361
瓶	-17362
畔	-17363
缈	-17364
缥	-17365
舅	-17366
距	-17367
车	-17368
喃	-17369
屈	-17370
怜	-17371
抽	-17372
损	-17373
烈	-17374
辣	-17375
雅	-17376
靠	-17377
骇	-17378
《	-17379
》	-17380
业	-17381
娶	-17382
愈	-17383
溜	-17384
耻	-17385
脾	-17386
骅	-17387
俊	-17388
勿	-17389
忧	-17390
菩	-17391
亡	-17392
列	-17393
占	-17394
妄	-17395
寸	-17396
抛	-17397
拨	-17398
景	-17399
材	-17400
毙	-17401
禅	-17402
弯	-17403
态	-17404
悟	-17405
戏	-17406
柱	-17407
桥	-17408
温	-17409
源	-17410
滴	-17411
罚	-17412
衲	-17413
迅	-17414
醉	-17415
乡	-17416
宽	-17417
层	-17418
忌	-17419
挖	-17420
盛	-17421
顷	-17422
兽	-17423
喀	-17424
揭	-17425
枉	-17426
珍	-17427
遵	-17428
颗	-17429
姚	-17430
幅	-17431
整	-17432
歌	-17433
痴	-17434
蒙	-17435
蕃	-17436
倾	-17437
割	-17438
咽	-17439
捏	-17440
特	-17441
狮	-17442
质	-17443
闲	-17444
催	-17445
志	-17446
慰	-17447
斤	-17448
歹	-17449
缚	-17450
蛋	-17451
霸	-17452
额	-17453
卑	-17454
截	-17455
承	-17456
挣	-17457
汤	-17458
琴	-17459
甲	-17460
瞪	-17461
秀	-17462
著	-17463
蛮	-17464
违	-17465
俱	-17466
妨	-17467
捷	-17468
搭	-17469
暂	-17470
积	-17471
纸	-17472
肌	-17473
判	-17474
娃	-17475
它	-17476
弥	-17477
痒	-17478
绕	-17479
诧	-17480
侄	-17481
冥	-17482
哉	-17483
唇	-17484
增	-17485
宜	-17486
拆	-17487
烛	-17488
瞒	-17489
腾	-17490
踪	-17491
迫	-17492
默	-17493
幌	-17494
彦	-17495
掩	-17496
聋	-17497
辛	-17498
逢	-17499
佳	-17500
扫	-17501
撕	-17502
棍	-17503
森	-17504
界	-17505
瞎	-17506
肠	-17507
莽	-17508
贯	-17509
锥	-17510
刷	-17511
呜	-17512
喷	-17513
夹	-17514
奈	-17515
委	-17516
杂	-17517
详	-17518
驸	-17519
呵	-17520
杆	-17521
梁	-17522
猎	-17523
磨	-17524
苍	-17525
附	-17526
陵	-17527
陷	-17528
患	-17529
桑	-17530
汗	-17531
瑰	-17532
稀	-17533
糕	-17534
茫	-17535
鄙	-17536
闯	-17537
闷	-17538
雷	-17539
俩	-17540
唱	-17541
嘻	-17542
擦	-17543
旗	-17544
渊	-17545
疼	-17546
谱	-17547
俗	-17548
削	-17549
悬	-17550
旨	-17551
竺	-17552
赏	-17553
递	-17554
题	-17555
仆	-17556
扭	-17557
玫	-17558
艮	-17559
蜂	-17560
诀	-17561
咕	-17562
朵	-17563
盈	-17564
瞥	-17565
矛	-17566
专	-17567
喊	-17568
坚	-17569
富	-17570
扣	-17571
拒	-17572
族	-17573
标	-17574
诡	-17575
龟	-17576
侮	-17577
吞	-17578
奴	-17579
姐	-17580
捧	-17581
携	-17582
污	-17583
绳	-17584
辨	-17585
创	-17586
尾	-17587
床	-17588
征	-17589
慌	-17590
昔	-17591
杏	-17592
滑	-17593
疯	-17594
窜	-17595
锋	-17596
嗔	-17597
坡	-17598
妥	-17599
拖	-17600
援	-17601
洒	-17602
熊	-17603
肤	-17604
锤	-17605
鹿	-17606
傅	-17607
哲	-17608
墓	-17609
奋	-17610
嫁	-17611
废	-17612
扎	-17613
拾	-17614
瘦	-17615
类	-17616
联	-17617
菊	-17618
象	-17619
赐	-17620
买	-17621
僵	-17622
厌	-17623
掠	-17624
束	-17625
洗	-17626
浓	-17627
渔	-17628
畏	-17629
矣	-17630
稳	-17631
纯	-17632
荒	-17633
蟒	-17634
逆	-17635
颠	-17636
伴	-17637
凄	-17638
减	-17639
印	-17640
埋	-17641
惹	-17642
戳	-17643
效	-17644
末	-17645
隆	-17646
项	-17647
饿	-17648
克	-17649
夷	-17650
扇	-17651
溪	-17652
痕	-17653
证	-17654
趣	-17655
配	-17656
锦	-17657
勉	-17658
嚷	-17659
堪	-17660
妖	-17661
暴	-17662
煦	-17663
继	-17664
诗	-17665
躺	-17666
迈	-17667
铮	-17668
午	-17669
喘	-17670
寨	-17671
爽	-17672
鞋	-17673
宛	-17674
弓	-17675
批	-17676
拇	-17677
振	-17678
撑	-17679
椅	-17680
沙	-17681
田	-17682
笛	-17683
笼	-17684
策	-17685
缝	-17686
脏	-17687
蛤	-17688
谨	-17689
轰	-17690
遣	-17691
钩	-17692
雾	-17693
傻	-17694
勾	-17695
厮	-17696
哀	-17697
宴	-17698
尔	-17699
搂	-17700
擅	-17701
牌	-17702
睬	-17703
耗	-17704
胁	-17705
膛	-17706
萨	-17707
释	-17708
钉	-17709
叉	-17710
困	-17711
姿	-17712
孽	-17713
毁	-17714
益	-17715
碍	-17716
章	-17717
缺	-17718
罕	-17719
财	-17720
跑	-17721
逝	-17722
颂	-17723
鲍	-17724
傲	-17725
寡	-17726
席	-17727
扰	-17728
揖	-17729
撒	-17730
映	-17731
晓	-17732
殊	-17733
瓜	-17734
葛	-17735
蜈	-17736
谅	-17737
费	-17738
述	-17739
咚	-17740
嘶	-17741
壮	-17742
岸	-17743
後	-17744
悦	-17745
挟	-17746
挨	-17747
球	-17748
绵	-17749
舒	-17750
蚣	-17751
裤	-17752
誓	-17753
陋	-17754
限	-17755
倚	-17756
婴	-17757
扳	-17758
抚	-17759
洋	-17760
测	-17761
魄	-17762
1	-17763
丸	-17764
俯	-17765
咳	-17766
园	-17767
宾	-17768
工	-17769
拱	-17770
旋	-17771
期	-17772
畅	-17773
研	-17774
竭	-17775
肥	-17776
蓬	-17777
触	-17778
锁	-17779
2	-17780
凑	-17781
呸	-17782
幕	-17783
户	-17784
披	-17785
挽	-17786
昂	-17787
漆	-17788
盾	-17789
粒	-17790
贪	-17791
赤	-17792
钦	-17793
龚	-17794
卖	-17795
卧	-17796
吼	-17797
愁	-17798
斥	-17799
普	-17800
曼	-17801
腻	-17802
艳	-17803
补	-17804
躁	-17805
锐	-17806
儒	-17807
啸	-17808
怖	-17809
拥	-17810
歪	-17811
湿	-17812
级	-17813
赖	-17814
轴	-17815
驴	-17816
鸣	-17817
丢	-17818
卦	-17819
哎	-17820
哨	-17821
恕	-17822
惯	-17823
掳	-17824
柳	-17825
沾	-17826
珑	-17827
秃	-17828
简	-17829
绑	-17830
网	-17831
脖	-17832
覆	-17833
讥	-17834
霍	-17835
匠	-17836
哇	-17837
嗒	-17838
宰	-17839
建	-17840
斟	-17841
漏	-17842
统	-17843
膻	-17844
葬	-17845
虑	-17846
觑	-17847
词	-17848
遮	-17849
飕	-17850
介	-17851
俏	-17852
夕	-17853
姝	-17854
恍	-17855
恳	-17856
悠	-17857
愕	-17858
措	-17859
政	-17860
瓷	-17861
盒	-17862
绘	-17863
腐	-17864
谓	-17865
谦	-17866
邀	-17867
卒	-17868
咦	-17869
奚	-17870
屑	-17871
希	-17872
弃	-17873
恰	-17874
搜	-17875
晶	-17876
湛	-17877
焉	-17878
狈	-17879
程	-17880
腔	-17881
裹	-17882
训	-17883
载	-17884
伦	-17885
刹	-17886
婚	-17887
宣	-17888
幻	-17889
掘	-17890
敷	-17891
暖	-17892
歉	-17893
漫	-17894
瑞	-17895
纠	-17896
纹	-17897
艰	-17898
询	-17899
侵	-17900
啷	-17901
嫌	-17902
尬	-17903
尴	-17904
枪	-17905
榜	-17906
泼	-17907
溅	-17908
繁	-17909
胀	-17910
虏	-17911
迢	-17912
阅	-17913
仔	-17914
僻	-17915
剪	-17916
启	-17917
嘛	-17918
彩	-17919
拗	-17920
拼	-17921
掀	-17922
沿	-17923
泽	-17924
淋	-17925
甜	-17926
窖	-17927
竖	-17928
耿	-17929
肢	-17930
融	-17931
逞	-17932
锡	-17933
龄	-17934
典	-17935
刑	-17936
奏	-17937
市	-17938
庙	-17939
搔	-17940
昨	-17941
暇	-17942
猪	-17943
盆	-17944
米	-17945
蜜	-17946
资	-17947
预	-17948
驱	-17949
鲁	-17950
供	-17951
召	-17952
唐	-17953
媚	-17954
崇	-17955
帖	-17956
悉	-17957
搏	-17958
杵	-17959
柴	-17960
泛	-17961
济	-17962
盏	-17963
盟	-17964
瞬	-17965
绽	-17966
翼	-17967
谎	-17968
叮	-17969
帽	-17970
惮	-17971
拈	-17972
涉	-17973
潇	-17974
献	-17975
疏	-17976
碾	-17977
获	-17978
黯	-17979
享	-17980
嘲	-17981
奥	-17982
孝	-17983
悍	-17984
抹	-17985
据	-17986
浪	-17987
煞	-17988
爪	-17989
甥	-17990
脆	-17991
钧	-17992
饰	-17993
促	-17994
匕	-17995
呻	-17996
唤	-17997
啧	-17998
嗡	-17999
嘱	-18000
坊	-18001
怯	-18002
恋	-18003
惑	-18004
搁	-18005
攀	-18006
敲	-18007
斯	-18008
权	-18009
欣	-18010
浸	-18011
焚	-18012
爸	-18013
监	-18014
眶	-18015
羽	-18016
胧	-18017
蓄	-18018
迳	-18019
=	-18020
仪	-18021
价	-18022
区	-18023
呈	-18024
忒	-18025
惺	-18026
拐	-18027
淫	-18028
滋	-18029
演	-18030
熄	-18031
牯	-18032
笨	-18033
绣	-18034
职	-18035
荤	-18036
赢	-18037
亭	-18038
兼	-18039
唷	-18040
嫂	-18041
岔	-18042
朦	-18043
概	-18044
款	-18045
浮	-18046
瓦	-18047
籍	-18048
耸	-18049
肃	-18050
肋	-18051
肿	-18052
荷	-18053
鞍	-18054
验	-18055
魁	-18056
偶	-18057
剩	-18058
噗	-18059
堕	-18060
尼	-18061
岭	-18062
慨	-18063
挤	-18064
斑	-18065
曰	-18066
棺	-18067
瘴	-18068
省	-18069
腥	-18070
舟	-18071
襟	-18072
诵	-18073
顽	-18074
鸟	-18075
厨	-18076
叩	-18077
吵	-18078
哗	-18079
嗽	-18080
囊	-18081
娟	-18082
桨	-18083
梵	-18084
洛	-18085
畜	-18086
疲	-18087
笃	-18088
笺	-18089
篷	-18090
耀	-18091
考	-18092
耽	-18093
蝎	-18094
蠢	-18095
觅	-18096
豫	-18097
超	-18098
辉	-18099
铸	-18100
韦	-18101
伟	-18102
侯	-18103
健	-18104
勒	-18105
勤	-18106
吾	-18107
喧	-18108
嘘	-18109
循	-18110
恙	-18111
拢	-18112
掏	-18113
敏	-18114
梯	-18115
池	-18116
潜	-18117
炕	-18118
熬	-18119
窝	-18120
窥	-18121
笈	-18122
粪	-18123
纳	-18124
聊	-18125
蒲	-18126
警	-18127
诱	-18128
铺	-18129
饱	-18130
仅	-18131
吻	-18132
呕	-18133
呛	-18134
坟	-18135
填	-18136
尤	-18137
屏	-18138
押	-18139
括	-18140
捣	-18141
殷	-18142
液	-18143
甩	-18144
窄	-18145
纤	-18146
脊	-18147
脓	-18148
莱	-18149
讶	-18150
诃	-18151
跄	-18152
踉	-18153
选	-18154
邦	-18155
骥	-18156
黝	-18157
乞	-18158
侣	-18159
傍	-18160
刎	-18161
勃	-18162
叠	-18163
哄	-18164
寄	-18165
帅	-18166
帛	-18167
恃	-18168
欠	-18169
漓	-18170
燃	-18171
祝	-18172
窍	-18173
肘	-18174
裸	-18175
诛	-18176
逾	-18177
锣	-18178
阶	-18179
雕	-18180
—	-18181
剥	-18182
吉	-18183
咒	-18184
哩	-18185
啥	-18186
嗓	-18187
坛	-18188
奖	-18189
孟	-18190
峭	-18191
庭	-18192
庸	-18193
扁	-18194
晨	-18195
杨	-18196
榭	-18197
泣	-18198
浆	-18199
涕	-18200
犬	-18201
祟	-18202
粮	-18203
绸	-18204
肖	-18205
茗	-18206
菱	-18207
贝	-18208
赦	-18209
躯	-18210
辜	-18211
隙	-18212
零	-18213
麈	-18214
伐	-18215
匪	-18216
吆	-18217
呀	-18218
呐	-18219
姜	-18220
嫩	-18221
尝	-18222
彪	-18223
惠	-18224
惩	-18225
愚	-18226
抑	-18227
旦	-18228
朴	-18229
涧	-18230
潮	-18231
秽	-18232
芦	-18233
访	-18234
诈	-18235
蹈	-18236
链	-18237
阎	-18238
阔	-18239
骏	-18240
乒	-18241
乓	-18242
伶	-18243
俘	-18244
倏	-18245
儡	-18246
劣	-18247
努	-18248
厢	-18249
坠	-18250
库	-18251
弈	-18252
惴	-18253
拙	-18254
晋	-18255
枢	-18256
梧	-18257
沛	-18258
烁	-18259
甫	-18260
睹	-18261
祭	-18262
维	-18263
缎	-18264
脂	-18265
诣	-18266
贸	-18267
酥	-18268
驹	-18269
仓	-18270
兔	-18271
叙	-18272
叨	-18273
叽	-18274
吊	-18275
哦	-18276
嘟	-18277
域	-18278
夭	-18279
导	-18280
恻	-18281
憾	-18282
栗	-18283
泻	-18284
煎	-18285
牟	-18286
牧	-18287
禽	-18288
窒	-18289
芒	-18290
蕴	-18291
谕	-18292
踌	-18293
踝	-18294
躇	-18295
优	-18296
傀	-18297
凸	-18298
剌	-18299
卟	-18300
吁	-18301
坞	-18302
堵	-18303
塔	-18304
惟	-18305
描	-18306
搬	-18307
操	-18308
於	-18309
染	-18310
涔	-18311
灾	-18312
炎	-18313
疆	-18314
疤	-18315
睨	-18316
砸	-18317
筹	-18318
缰	-18319
翁	-18320
腑	-18321
葫	-18322
讳	-18323
豆	-18324
贫	-18325
迸	-18326
醋	-18327
铲	-18328
霜	-18329
饥	-18330
值	-18331
剃	-18332
啼	-18333
噩	-18334
坳	-18335
夸	-18336
宠	-18337
寥	-18338
巡	-18339
捕	-18340
槐	-18341
津	-18342
炸	-18343
祁	-18344
肺	-18345
芳	-18346
衰	-18347
赌	-18348
赎	-18349
逗	-18350
郑	-18351
酣	-18352
骸	-18353
鼠	-18354
伪	-18355
偕	-18356
兮	-18357
史	-18358
囚	-18359
墨	-18360
壶	-18361
姻	-18362
宏	-18363
崩	-18364
彻	-18365
忿	-18366
悯	-18367
慷	-18368
懒	-18369
抄	-18370
拣	-18371
柯	-18372
狞	-18373
猫	-18374
盲	-18375
眩	-18376
眯	-18377
眷	-18378
碌	-18379
箱	-18380
署	-18381
蚁	-18382
评	-18383
诺	-18384
轧	-18385
返	-18386
铐	-18387
镶	-18388
雀	-18389
页	-18390
丰	-18391
侥	-18392
偿	-18393
唆	-18394
唔	-18395
唠	-18396
嘉	-18397
妞	-18398
录	-18399
役	-18400
憎	-18401
拘	-18402
拟	-18403
栏	-18404
汹	-18405
渗	-18406
滩	-18407
狡	-18408
疗	-18409
盐	-18410
耍	-18411
胎	-18412
莹	-18413
订	-18414
诲	-18415
赠	-18416
蹙	-18417
辆	-18418
辙	-18419
逸	-18420
闺	-18421
驯	-18422
储	-18423
凳	-18424
函	-18425
坑	-18426
妾	-18427
峻	-18428
惘	-18429
戟	-18430
戾	-18431
搅	-18432
殴	-18433
沸	-18434
淙	-18435
淹	-18436
灿	-18437
狭	-18438
琢	-18439
祥	-18440
簌	-18441
编	-18442
肆	-18443
蒋	-18444
街	-18445
衷	-18446
诬	-18447
贾	-18448
趾	-18449
迁	-18450
迦	-18451
逊	-18452
钓	-18453
锄	-18454
驼	-18455
髯	-18456
乍	-18457
予	-18458
冯	-18459
嗅	-18460
塌	-18461
妒	-18462
寞	-18463
巾	-18464
挫	-18465
揣	-18466
梢	-18467
涩	-18468
渎	-18469
灌	-18470
爵	-18471
狐	-18472
狱	-18473
矫	-18474
膀	-18475
臼	-18476
苟	-18477
虐	-18478
酷	-18479
鉴	-18480
鞘	-18481
仑	-18482
兜	-18483
兢	-18484
冬	-18485
凹	-18486
匙	-18487
叱	-18488
唾	-18489
嗫	-18490
嚅	-18491
庞	-18492
慑	-18493
扼	-18494
择	-18495
播	-18496
旷	-18497
朽	-18498
桂	-18499
桩	-18500
殉	-18501
浇	-18502
滞	-18503
炙	-18504
炯	-18505
瘫	-18506
眸	-18507
糖	-18508
络	-18509
肝	-18510
臀	-18511
舱	-18512
豁	-18513
贻	-18514
邻	-18515
销	-18516
骄	-18517
黎	-18518
□	-18519
产	-18520
亵	-18521
倪	-18522
凿	-18523
卜	-18524
咯	-18525
哽	-18526
噪	-18527
奄	-18528
弦	-18529
忖	-18530
忸	-18531
怠	-18532
怩	-18533
悻	-18534
慎	-18535
拷	-18536
撇	-18537
擂	-18538
旺	-18539
昧	-18540
构	-18541
枕	-18542
洁	-18543
漠	-18544
煮	-18545
瓮	-18546
筷	-18547
绰	-18548
羡	-18549
肴	-18550
腋	-18551
荆	-18552
蓝	-18553
虾	-18554
诏	-18555
豹	-18556
货	-18557
蹲	-18558
遂	-18559
酱	-18560
酿	-18561
锏	-18562
镖	-18563
陆	-18564
霉	-18565
韵	-18566
颏	-18567
饼	-18568
馆	-18569
驳	-18570
骆	-18571
鹅	-18572
3	-18573
串	-18574
倔	-18575
吮	-18576
噜	-18577
坤	-18578
壳	-18579
宇	-18580
屠	-18581
嵌	-18582
廊	-18583
捡	-18584
捺	-18585
揽	-18586
歼	-18587
汴	-18588
泊	-18589
炭	-18590
炮	-18591
烤	-18592
猝	-18593
磊	-18594
磷	-18595
绪	-18596
苗	-18597
趋	-18598
跷	-18599
酬	-18600
钗	-18601
镣	-18602
阐	-18603
驻	-18604
鸢	-18605
鹰	-18606
丘	-18607
乏	-18608
乳	-18609
伺	-18610
侃	-18611
例	-18612
党	-18613
剐	-18614
卿	-18615
县	-18616
咄	-18617
咎	-18618
嚏	-18619
央	-18620
帷	-18621
忆	-18622
戚	-18623
抿	-18624
昌	-18625
暮	-18626
檐	-18627
毡	-18628
浩	-18629
渴	-18630
滥	-18631
炼	-18632
瞑	-18633
粘	-18634
羹	-18635
翅	-18636
育	-18637
膏	-18638
芙	-18639
蛟	-18640
蜡	-18641
讽	-18642
诌	-18643
译	-18644
踩	-18645
辔	-18646
镗	-18647
霹	-18648
馀	-18649
亢	-18650
冉	-18651
冻	-18652
匀	-18653
叟	-18654
咪	-18655
嗦	-18656
嫡	-18657
寿	-18658
巍	-18659
巢	-18660
帘	-18661
序	-18662
廷	-18663
廿	-18664
懊	-18665
揪	-18666
搓	-18667
斫	-18668
晒	-18669
柜	-18670
梳	-18671
检	-18672
棘	-18673
槌	-18674
沫	-18675
泡	-18676
润	-18677
涨	-18678
添	-18679
澜	-18680
猥	-18681
班	-18682
癫	-18683
督	-18684
社	-18685
秉	-18686
稻	-18687
窦	-18688
筑	-18689
篇	-18690
羔	-18691
胃	-18692
胞	-18693
胭	-18694
舂	-18695
莲	-18696
蓉	-18697
蔑	-18698
虞	-18699
蟆	-18700
衅	-18701
袜	-18702
裔	-18703
课	-18704
谊	-18705
贞	-18706
跛	-18707
锭	-18708
障	-18709
靴	-18710
驶	-18711
鸭	-18712
仲	-18713
册	-18714
吕	-18715
呒	-18716
员	-18717
喻	-18718
噤	-18719
孀	-18720
季	-18721
审	-18722
宵	-18723
届	-18724
履	-18725
庇	-18726
廉	-18727
弩	-18728
忏	-18729
恢	-18730
悴	-18731
憔	-18732
揉	-18733
摊	-18734
朔	-18735
桃	-18736
案	-18737
植	-18738
樱	-18739
沧	-18740
涵	-18741
瀑	-18742
炉	-18743
牲	-18744
瑟	-18745
瓣	-18746
痰	-18747
癞	-18748
砖	-18749
稽	-18750
筵	-18751
膂	-18752
蠕	-18753
袱	-18754
裙	-18755
裳	-18756
诞	-18757
谀	-18758
贺	-18759
踱	-18760
钝	-18761
雳	-18762
髓	-18763
鸦	-18764
鸾	-18765
刘	-18766
刮	-18767
厄	-18768
嗣	-18769
嘈	-18770
噎	-18771
嚼	-18772
妪	-18773
峙	-18774
庶	-18775
怅	-18776
控	-18777
晏	-18778
核	-18779
栽	-18780
桶	-18781
檀	-18782
毯	-18783
渍	-18784
燥	-18785
狰	-18786
琅	-18787
痊	-18788
瘾	-18789
碟	-18790
稷	-18791
窘	-18792
筱	-18793
篡	-18794
絮	-18795
缕	-18796
胯	-18797
艘	-18798
蒸	-18799
蔽	-18800
虬	-18801
袅	-18802
袒	-18803
赋	-18804
蹊	-18805
郊	-18806
锵	-18807
陶	-18808
霄	-18809
鲤	-18810
俐	-18811
俨	-18812
倦	-18813
匡	-18814
卉	-18815
哧	-18816
嘀	-18817
婿	-18818
嬉	-18819
尿	-18820
徨	-18821
恁	-18822
悚	-18823
拓	-18824
拭	-18825
揍	-18826
摺	-18827
撮	-18828
撼	-18829
攘	-18830
斛	-18831
昭	-18832
晰	-18833
暑	-18834
椎	-18835
槛	-18836
汁	-18837
涅	-18838
滔	-18839
爆	-18840
狯	-18841
申	-18842
眨	-18843
磁	-18844
祈	-18845
祷	-18846
禄	-18847
税	-18848
窃	-18849
纲	-18850
翘	-18851
翠	-18852
艾	-18853
荼	-18854
萌	-18855
萝	-18856
藕	-18857
蚂	-18858
蚊	-18859
蛭	-18860
裕	-18861
诉	-18862
谏	-18863
谛	-18864
赔	-18865
跤	-18866
践	-18867
蹑	-18868
辟	-18869
迄	-18870
逅	-18871
邂	-18872
锅	-18873
闩	-18874
雇	-18875
需	-18876
霞	-18877
骤	-18878
魅	-18879
黏	-18880
乙	-18881
仄	-18882
企	-18883
伊	-18884
伍	-18885
估	-18886
佑	-18887
俚	-18888
债	-18889
偈	-18890
凰	-18891
剖	-18892
剜	-18893
剽	-18894
勘	-18895
匾	-18896
卡	-18897
咙	-18898
咭	-18899
唧	-18900
啐	-18901
啮	-18902
嘭	-18903
噫	-18904
垫	-18905
培	-18906
塘	-18907
奕	-18908
妆	-18909
嶙	-18910
弑	-18911
彷	-18912
忾	-18913
怡	-18914
懈	-18915
扌	-18916
捋	-18917
掬	-18918
摄	-18919
撩	-18920
斓	-18921
昊	-18922
桀	-18923
榻	-18924
沮	-18925
涯	-18926
烫	-18927
狸	-18928
瑶	-18929
皑	-18930
皓	-18931
砚	-18932
篙	-18933
聆	-18934
聘	-18935
蔡	-18936
蔼	-18937
薰	-18938
蜒	-18939
蜿	-18940
衍	-18941
衬	-18942
裁	-18943
讪	-18944
谬	-18945
豸	-18946
购	-18947
趟	-18948
辗	-18949
遽	-18950
醺	-18951
铭	-18952
键	-18953
隶	-18954
雌	-18955
雍	-18956
靓	-18957
颅	-18958
颐	-18959
餐	-18960
馒	-18961
骡	-18962
鬓	-18963
鹜	-18964
伉	-18965
俪	-18966
偌	-18967
卸	-18968
厘	-18969
妮	-18970
姨	-18971
娴	-18972
婷	-18973
媒	-18974
孺	-18975
寇	-18976
寝	-18977
岖	-18978
峡	-18979
崎	-18980
帆	-18981
帕	-18982
庚	-18983
惚	-18984
懦	-18985
挚	-18986
挪	-18987
捆	-18988
擐	-18989
敛	-18990
晦	-18991
曹	-18992
朕	-18993
杠	-18994
梗	-18995
棱	-18996
殃	-18997
毂	-18998
毅	-18999
沈	-19000
涎	-19001
港	-19002
溺	-19003
漾	-19004
澄	-19005
炽	-19006
煌	-19007
牡	-19008
猴	-19009
猾	-19010
猿	-19011
琐	-19012
甬	-19013
疚	-19014
睽	-19015
瞻	-19016
碑	-19017
稚	-19018
窟	-19019
竞	-19020
筒	-19021
签	-19022
籁	-19023
粲	-19024
纱	-19025
绞	-19026
缟	-19027
羚	-19028
耆	-19029
胄	-19030
莎	-19031
葱	-19032
藉	-19033
藤	-19034
虹	-19035
螺	-19036
褛	-19037
览	-19038
谄	-19039
跋	-19040
踹	-19041
轩	-19042
辅	-19043
迂	-19044
遏	-19045
郭	-19046
钳	-19047
铃	-19048
阱	-19049
革	-19050
颁	-19051
颓	-19052
髻	-19053
鸳	-19054
鸿	-19055
麝	-19056
伎	-19057
佐	-19058
佯	-19059
俞	-19060
俟	-19061
兆	-19062
匈	-19063
咿	-19064
唣	-19065
喏	-19066
垢	-19067
姬	-19068
娜	-19069
嫔	-19070
孰	-19071
宅	-19072
峋	-19073
庐	-19074
弘	-19075
徊	-19076
忤	-19077
怫	-19078
悸	-19079
愉	-19080
戈	-19081
戮	-19082
拄	-19083
捶	-19084
攒	-19085
旅	-19086
曳	-19087
析	-19088
枣	-19089
桓	-19090
梨	-19091
殆	-19092
汝	-19093
沌	-19094
沟	-19095
沽	-19096
泞	-19097
涛	-19098
潭	-19099
灶	-19100
炊	-19101
炫	-19102
炷	-19103
烘	-19104
焕	-19105
煽	-19106
犒	-19107
玲	-19108
珲	-19109
琵	-19110
琶	-19111
痪	-19112
瘟	-19113
皈	-19114
眈	-19115
禹	-19116
竿	-19117
纺	-19118
织	-19119
绊	-19120
绌	-19121
绩	-19122
缭	-19123
肮	-19124
腆	-19125
腊	-19126
膺	-19127
苇	-19128
茂	-19129
茅	-19130
荫	-19131
蔓	-19132
蝶	-19133
褴	-19134
谜	-19135
账	-19136
蹋	-19137
轼	-19138
遁	-19139
钏	-19140
钿	-19141
锈	-19142
锯	-19143
镔	-19144
陌	-19145
陕	-19146
隘	-19147
韧	-19148
韩	-19149
颖	-19150
颚	-19151
飒	-19152
鬟	-19153
鸯	-19154
鸽	-19155
鹏	-19156
鹘	-19157
麦	-19158
·	-19159
仃	-19160
仿	-19161
佻	-19162
刁	-19163
厥	-19164
吏	-19165
呖	-19166
咸	-19167
哮	-19168
喙	-19169
嚣	-19170
娉	-19171
嫉	-19172
寰	-19173
尧	-19174
岗	-19175
崽	-19176
嵩	-19177
巽	-19178
弧	-19179
忡	-19180
恒	-19181
恚	-19182
悼	-19183
惆	-19184
惋	-19185
惦	-19186
搞	-19187
摧	-19188
攸	-19189
晴	-19190
枰	-19191
栩	-19192
棵	-19193
椰	-19194
楞	-19195
歧	-19196
沦	-19197
泯	-19198
洱	-19199
渺	-19200
溢	-19201
滇	-19202
澈	-19203
煤	-19204
版	-19205
獠	-19206
琉	-19207
璃	-19208
症	-19209
痹	-19210
盯	-19211
眺	-19212
矢	-19213
砌	-19214
硝	-19215
磺	-19216
科	-19217
箍	-19218
篑	-19219
绎	-19220
绢	-19221
缸	-19222
羁	-19223
翩	-19224
胶	-19225
腼	-19226
舀	-19227
舜	-19228
芥	-19229
萎	-19230
萦	-19231
蛛	-19232
蝇	-19233
襄	-19234
觊	-19235
觎	-19236
诳	-19237
谒	-19238
谣	-19239
谤	-19240
贡	-19241
贩	-19242
贮	-19243
赛	-19244
蹦	-19245
辄	-19246
遨	-19247
钵	-19248
靖	-19249
靡	-19250
馋	-19251
馥	-19252
馨	-19253
骧	-19254
骼	-19255
0	-19256
丙	-19257
倨	-19258
僚	-19259
兹	-19260
券	-19261
匝	-19262
协	-19263
卯	-19264
呱	-19265
哂	-19266
喟	-19267
嗥	-19268
嗲	-19269
嘤	-19270
噬	-19271
坎	-19272
型	-19273
堡	-19274
娓	-19275
婀	-19276
宥	-19277
寓	-19278
屣	-19279
峨	-19280
巅	-19281
巷	-19282
幺	-19283
彰	-19284
愠	-19285
戕	-19286
挛	-19287
掺	-19288
搐	-19289
搽	-19290
撅	-19291
撤	-19292
敕	-19293
斋	-19294
旌	-19295
旎	-19296
旖	-19297
杜	-19298
橐	-19299
歃	-19300
殓	-19301
毋	-19302
汨	-19303
汩	-19304
沓	-19305
沥	-19306
淅	-19307
淘	-19308
湘	-19309
潸	-19310
澡	-19311
狄	-19312
猱	-19313
獐	-19314
玎	-19315
玷	-19316
痉	-19317
痣	-19318
瘀	-19319
瘁	-19320
瘤	-19321
皂	-19322
皎	-19323
砂	-19324
稠	-19325
窿	-19326
笆	-19327
箕	-19328
篮	-19329
篱	-19330
簧	-19331
糠	-19332
缀	-19333
缤	-19334
臆	-19335
臊	-19336
臻	-19337
舐	-19338
芍	-19339
芸	-19340
苛	-19341
茸	-19342
茹	-19343
莳	-19344
莺	-19345
虔	-19346
蜀	-19347
蝉	-19348
蝴	-19349
蝼	-19350
蟹	-19351
衡	-19352
裘	-19353
诊	-19354
诫	-19355
诿	-19356
贷	-19357
赝	-19358
跚	-19359
蹒	-19360
蹬	-19361
轿	-19362
辖	-19363
迭	-19364
逻	-19365
郡	-19366
钮	-19367
靶	-19368
鞑	-19369
饲	-19370
骁	-19371
骚	-19372
骷	-19373
髅	-19374
魏	-19375
麾	-19376
4	-19377
7	-19378
L	-19379
a	-19380
e	-19381
〓	-19382
亥	-19383
亩	-19384
仟	-19385
伽	-19386
佼	-19387
侪	-19388
俦	-19389
俺	-19390
俾	-19391
倜	-19392
倡	-19393
傥	-19394
刊	-19395
删	-19396
剔	-19397
励	-19398
卤	-19399
卵	-19400
叭	-19401
吝	-19402
吠	-19403
咆	-19404
咛	-19405
咫	-19406
唬	-19407
售	-19408
啄	-19409
啪	-19410
喳	-19411
嗑	-19412
嚓	-19413
圃	-19414
址	-19415
垓	-19416
垮	-19417
堤	-19418
壤	-19419
奠	-19420
奢	-19421
娑	-19422
娱	-19423
媳	-19424
孕	-19425
孪	-19426
尉	-19427
岐	-19428
巳	-19429
幡	-19430
彤	-19431
彬	-19432
徘	-19433
忭	-19434
怆	-19435
恪	-19436
恫	-19437
恸	-19438
惕	-19439
憨	-19440
懑	-19441
抒	-19442
抡	-19443
捞	-19444
捻	-19445
掼	-19446
撰	-19447
擎	-19448
擤	-19449
旬	-19450
昵	-19451
昼	-19452
杉	-19453
村	-19454
柬	-19455
栖	-19456
校	-19457
桐	-19458
槁	-19459
欧	-19460
汇	-19461
泫	-19462
浊	-19463
浙	-19464
涓	-19465
涡	-19466
淮	-19467
滨	-19468
潘	-19469
灸	-19470
烬	-19471
烹	-19472
熏	-19473
牺	-19474
犊	-19475
犷	-19476
玺	-19477
甸	-19478
畦	-19479
疮	-19480
盎	-19481
盔	-19482
睐	-19483
睿	-19484
瞅	-19485
瞠	-19486
瞳	-19487
矍	-19488
祜	-19489
秣	-19490
笋	-19491
笞	-19492
箫	-19493
篆	-19494
簇	-19495
粱	-19496
糜	-19497
组	-19498
绍	-19499
绥	-19500
绷	-19501
缜	-19502
缴	-19503
罐	-19504
翎	-19505
翔	-19506
翰	-19507
耕	-19508
胤	-19509
脐	-19510
腮	-19511
膨	-19512
茉	-19513
茧	-19514
荐	-19515
荔	-19516
莉	-19517
莞	-19518
菌	-19519
蒂	-19520
蔬	-19521
藩	-19522
蚀	-19523
蛆	-19524
蛊	-19525
蛙	-19526
蜷	-19527
衽	-19528
袈	-19529
裟	-19530
裣	-19531
譬	-19532
讷	-19533
诓	-19534
诽	-19535
豺	-19536
贬	-19537
贲	-19538
跺	-19539
辍	-19540
辫	-19541
遢	-19542
邋	-19543
酉	-19544
酪	-19545
醮	-19546
鏖	-19547
钥	-19548
铩	-19549
阖	-19550
阙	-19551
陲	-19552
霆	-19553
频	-19554
饺	-19555
驮	-19556
骓	-19557
鬃	-19558
鳌	-19559
鳞	-19560
鸷	-19561
鹑	-19562
鹦	-19563
黔	-19564
龊	-19565
龌	-19566
	-19567
-	-19568
6	-19569
8	-19570
9	-19571
[	-19572
]	-19573
g	-19574
i	-19575
l	-19576
○	-19577
亚	-19578
亟	-19579
亿	-19580
仞	-19581
侏	-19582
侬	-19583
俭	-19584
偃	-19585
偎	-19586
兑	-19587
冀	-19588
冈	-19589
冽	-19590
凋	-19591
凯	-19592
剂	-19593
勖	-19594
勹	-19595
匣	-19596
卢	-19597
叵	-19598
吱	-19599
呃	-19600
咀	-19601
咩	-19602
哒	-19603
唏	-19604
唿	-19605
啕	-19606
喋	-19607
喔	-19608
嗜	-19609
垛	-19610
垤	-19611
夤	-19612
妩	-19613
姗	-19614
娥	-19615
嫫	-19616
嬴	-19617
屉	-19618
屡	-19619
岌	-19620
巫	-19621
帚	-19622
帜	-19623
弊	-19624
弗	-19625
弛	-19626
忱	-19627
怼	-19628
悭	-19629
惫	-19630
惰	-19631
懵	-19632
戎	-19633
戛	-19634
戢	-19635
扒	-19636
扩	-19637
抻	-19638
拊	-19639
拌	-19640
挠	-19641
捎	-19642
掐	-19643
掴	-19644
搪	-19645
撄	-19646
敞	-19647
旄	-19648
旭	-19649
昙	-19650
晤	-19651
暄	-19652
暨	-19653
枘	-19654
梓	-19655
棚	-19656
椒	-19657
椽	-19658
椿	-19659
楣	-19660
榴	-19661
樵	-19662
橱	-19663
殄	-19664
氵	-19665
汽	-19666
沁	-19667
浴	-19668
涟	-19669
涿	-19670
淆	-19671
淑	-19672
渚	-19673
湃	-19674
湍	-19675
漂	-19676
漉	-19677
漪	-19678
漱	-19679
潺	-19680
澎	-19681
灼	-19682
炒	-19683
焊	-19684
焙	-19685
煨	-19686
熔	-19687
熙	-19688
犁	-19689
狍	-19690
猬	-19691
琳	-19692
瑚	-19693
瑜	-19694
璇	-19695
瓢	-19696
痢	-19697
皋	-19698
皿	-19699
盂	-19700
盥	-19701
眠	-19702
睦	-19703
睫	-19704
磋	-19705
磐	-19706
磬	-19707
礻	-19708
祗	-19709
祠	-19710
秆	-19711
稔	-19712
穹	-19713
笠	-19714
箸	-19715
篓	-19716
簸	-19717
纭	-19718
纶	-19719
绡	-19720
绫	-19721
绺	-19722
羲	-19723
翡	-19724
耙	-19725
肇	-19726
肾	-19727
胳	-19728
脘	-19729
腴	-19730
膘	-19731
膜	-19732
舆	-19733
茭	-19734
菇	-19735
萍	-19736
萤	-19737
董	-19738
葺	-19739
蒜	-19740
